// Layer       : conv2
// Tensor      : weights
// Shape       : (32, 16, 5)
// Dtype       : INT8  (symmetric, zero_point=0)
// Memory order: addr = oc*(Cin*K) + ic*K + k
//               oc in [0,32), ic in [0,16), k in [0,5)
// Total words  : 2560
// Per-channel scales (oc=0 first):
//   oc=  0: 2.71151727e-03
//   oc=  1: 4.16199351e-03
//   oc=  2: 1.87594525e-03
//   oc=  3: 3.65513889e-03
//   oc=  4: 3.61913908e-03
//   oc=  5: 2.64106924e-03
//   oc=  6: 1.97922764e-03
//   oc=  7: 3.06807505e-03
//   oc=  8: 5.31501649e-03
//   oc=  9: 2.78171874e-03
//   oc= 10: 3.16034793e-03
//   oc= 11: 3.69011424e-03
//   oc= 12: 2.51705642e-03
//   oc= 13: 3.46981059e-03
//   oc= 14: 1.62625720e-03
//   oc= 15: 3.09950416e-03
//   oc= 16: 2.94639100e-03
//   oc= 17: 2.10462161e-03
//   oc= 18: 3.06115439e-03
//   oc= 19: 2.03127577e-03
//   oc= 20: 1.39627489e-03
//   oc= 21: 1.51982834e-03
//   oc= 22: 2.06479873e-03
//   oc= 23: 2.56721443e-03
//   oc= 24: 1.61237584e-03
//   oc= 25: 2.01662560e-03
//   oc= 26: 2.09521479e-03
//   oc= 27: 3.24967597e-03
//   oc= 28: 3.00159026e-03
//   oc= 29: 2.97486596e-03
//   oc= 30: 2.42620194e-03
//   oc= 31: 2.42687343e-03
// Use in RTL  : $readmemh("conv2_weights.hex", rom_conv2_w);
//
f5
db
10
f4
19
0a
22
ce
e6
0b
0a
00
17
23
df
a5
32
f6
db
f3
1c
32
01
dd
fa
07
f6
eb
c4
c9
2b
01
18
c7
f1
f5
08
ce
f4
df
f6
e0
07
e6
d8
bb
f0
cc
37
f6
2a
32
e7
30
e3
f2
dc
bc
0a
f5
30
b8
51
09
ed
13
1e
08
f8
b0
c7
da
d2
81
1b
f5
1d
24
32
cc
1d
02
09
e7
1a
f1
cc
23
09
e9
f3
02
19
fa
f4
00
f4
10
21
d3
12
1e
f5
f9
16
1d
0a
f5
ec
fc
e3
d7
0f
1e
f3
ff
f8
06
0b
12
e7
f1
23
11
f2
fb
ba
db
ee
13
17
17
c9
f5
e9
02
f1
eb
0a
03
fd
16
dc
0f
d7
19
06
16
e4
da
b6
04
f2
13
08
04
f8
e1
a0
81
06
fc
e3
cf
e0
b1
d6
03
b1
d8
fb
e3
e9
d5
e3
9d
48
b9
05
e2
4a
ef
36
e8
ef
5d
fc
ea
e3
e1
00
cc
25
0e
30
fc
dd
fb
05
be
fc
ec
e3
cc
ee
bd
c5
26
fd
09
27
18
c9
b6
09
c3
fe
0c
dd
dd
ee
16
bd
dc
f4
27
c3
dd
eb
35
32
81
c2
fe
3f
25
4c
26
c7
44
de
f6
19
10
06
d0
bf
d4
ad
f4
27
03
d3
d7
41
a0
e9
1a
ad
fc
0f
e2
d2
81
b9
f1
20
dc
da
20
1e
1d
2b
29
b5
11
12
ef
df
48
e9
d5
c7
0f
3c
0b
fb
d4
bb
02
5f
16
d1
e4
cf
e9
0c
23
2c
da
2b
fa
ff
1d
ca
23
a0
d4
38
fc
f7
d7
12
3d
e6
f6
cc
01
32
01
fa
29
00
0b
03
aa
d2
de
c9
41
f1
eb
3c
1e
39
d3
c0
42
b8
ab
e9
d5
c7
12
41
f8
d8
b4
f5
26
13
e0
e2
26
e1
1b
ec
06
fb
1a
cb
3d
fa
2f
42
8d
d9
2f
17
c9
d6
cf
a4
c4
e3
22
db
23
06
f6
ed
0e
ea
da
03
dd
e3
25
30
3c
5c
24
39
ea
bf
14
fb
e1
81
c8
2b
07
eb
0b
e6
eb
31
d9
3d
03
22
2f
1d
08
02
fa
28
3a
da
eb
1f
25
3b
43
39
47
1a
12
1d
15
1b
c3
fa
d4
d8
e0
56
cf
3b
00
1b
30
06
2f
1c
c0
26
fb
2b
f1
0d
e8
28
7f
45
08
c1
ff
d5
24
c4
ff
2e
05
41
36
5f
44
45
e7
00
0b
dc
f7
da
b9
fb
e6
27
3e
12
1c
03
e3
ea
c8
da
fc
c4
ee
ef
ed
f6
0a
1b
da
e9
fc
ca
eb
3b
d3
06
10
16
15
ee
fe
01
0a
fd
da
f5
f3
06
dc
02
eb
11
ff
f3
0c
de
e6
fa
c1
ea
f0
fa
f8
27
d2
e0
f3
14
e7
e7
e3
d1
0a
0d
05
fc
dd
01
ec
17
fe
de
0c
e9
e0
ee
fc
f9
b3
81
d7
bf
fe
0c
e7
2e
15
c9
e8
12
f1
f0
d3
26
f5
26
fe
f6
21
f8
d9
df
2d
ff
19
f0
e8
11
2c
2e
1f
1a
f7
e8
14
33
0c
c3
21
01
f6
e0
ec
1e
07
f0
02
d8
27
df
d0
ce
da
10
30
08
fb
f8
0f
22
25
ec
20
28
d2
d9
91
14
c9
ec
d8
dc
09
e4
fd
00
f4
3d
20
0e
ae
81
a1
f6
12
14
16
e9
f6
0c
f2
e3
eb
1e
e7
e9
0c
09
1c
ef
e0
01
28
23
f4
1b
1d
f7
f8
1d
e5
f0
31
fb
18
fe
f1
14
ee
07
16
df
1e
ed
fe
f0
e6
d2
10
09
cc
e8
2f
0e
fc
ed
ba
f9
ef
e6
05
0b
f9
ee
fc
f5
eb
f5
d3
08
f6
01
48
ea
10
21
f2
3b
b0
d5
cb
81
f3
f5
31
c9
1d
e0
c4
19
d8
61
c1
f9
22
25
17
10
cf
f9
3e
21
20
10
e7
34
0d
13
13
2e
03
0a
d0
1a
1f
81
dc
e0
30
02
08
0c
c7
2a
c9
c0
cc
c4
ee
35
ca
12
1a
1f
b3
be
6f
b3
23
5e
f6
2a
34
0c
c8
38
1d
ba
38
73
f6
da
a8
e9
7f
19
0d
e9
da
2d
cf
62
aa
14
11
10
0f
27
57
2f
07
9d
21
fd
f1
f1
f5
30
f9
05
bd
e9
02
53
36
17
2f
25
0a
c1
09
0a
05
cb
34
4c
d0
3f
eb
f3
0c
db
ff
db
07
d6
f6
3c
dc
f2
27
e0
11
66
e5
d7
ed
cf
dd
c5
32
ef
e3
dc
e0
ef
15
b1
f7
a3
a4
d1
41
81
a6
20
1d
15
a2
c7
a4
41
fd
b9
fd
cd
ff
f9
43
03
c7
12
11
ff
06
06
e7
2f
ea
01
14
0d
58
4b
ed
10
4f
c1
f6
c9
08
14
e8
ee
26
e4
f1
43
d3
f2
00
06
c0
20
e4
e6
0d
f3
db
0a
12
c7
ef
40
bd
d3
21
1f
11
d2
0d
30
1b
cb
ec
ea
f6
3a
d8
3b
e7
eb
cd
17
dc
c7
95
84
4c
30
d2
81
dc
df
2d
16
14
db
a9
02
14
33
a2
4d
0e
f4
e9
21
1f
cf
dc
d6
b2
d5
1f
41
63
bd
3b
18
6d
5d
20
2d
43
f0
1e
b9
26
01
0f
e2
e1
e4
fa
eb
d5
e2
1a
1b
20
11
cc
ba
fa
c7
7f
47
09
dd
3c
2e
2c
9e
e7
dd
54
f7
2c
10
13
fa
eb
f1
c1
e9
35
09
95
b3
fb
4d
2b
e5
ea
f4
e5
1a
e4
f1
05
ff
0b
df
29
e8
db
22
ee
e7
fd
df
04
08
e3
ef
f3
25
d9
e0
df
25
20
e1
29
eb
d1
dc
08
31
07
de
1f
10
0c
0b
1d
d3
27
e7
05
ee
f2
fb
f4
c2
00
4e
08
20
05
0f
ee
06
e6
aa
e2
22
d9
06
05
0a
28
d3
2b
36
da
06
e1
c2
81
c4
d1
d8
03
09
4b
0c
d1
37
dc
60
12
2a
e6
3f
45
04
3d
34
ff
4a
f9
81
f0
e4
cb
ce
9c
2d
20
09
b2
30
32
0d
1d
41
d1
01
13
1b
45
cf
0d
0b
09
45
04
d6
d8
fb
f3
d4
9a
0a
ed
d7
32
0c
24
1d
d9
48
24
e9
cf
3e
64
db
34
ae
b0
f1
25
d0
fe
be
32
36
25
d5
45
da
01
eb
c7
d2
e0
3b
b8
14
2e
3f
2a
1f
d7
2a
2f
a9
c6
e8
16
09
14
ea
e4
eb
21
e3
96
d9
11
03
4a
24
f8
4c
e8
08
ed
ba
09
df
fd
ec
fb
cc
9d
12
19
d4
1c
e7
00
3f
ff
9d
11
40
fb
34
f3
df
b5
0f
e0
ce
b8
96
03
ac
30
ea
c8
ef
03
40
e3
81
14
d4
0b
ea
1b
c4
05
39
b9
db
c7
17
3e
23
42
ed
c2
33
f6
53
b6
41
11
60
86
23
81
04
26
a3
ea
ba
a1
ff
fe
29
d0
0f
24
0b
05
c8
db
f8
c5
d0
0a
05
ce
f3
dd
d6
db
4e
25
1d
a8
a8
00
f9
f9
e8
08
f4
4a
06
ba
e7
b0
f1
c9
c2
df
4b
26
0d
03
9b
09
49
28
bd
22
d4
fd
07
e9
db
e5
22
1f
e4
e7
fc
e0
30
37
0a
03
16
22
0c
f6
be
f3
c4
81
ba
13
15
ed
f8
f4
db
fa
ec
ff
c5
06
f7
1f
0d
f5
ff
25
f4
f5
f7
ee
05
16
f0
31
e8
bb
cc
ad
d7
86
d8
01
21
42
32
e6
0c
cd
f5
d9
eb
fb
e4
fd
a7
fe
11
24
38
46
29
22
3b
0f
2c
17
28
20
ea
04
d9
06
1d
0f
3c
35
e1
e2
d5
fd
d9
d6
e5
f5
d6
15
18
61
24
18
44
28
ec
f9
0b
1c
29
e5
2c
1b
0c
dc
b6
d0
2c
2a
1c
df
d7
1c
03
fa
f2
3c
cb
1a
e4
e1
16
f2
ef
26
02
e5
81
b3
9d
0d
22
0f
bc
dd
12
35
d0
41
27
f0
2b
ba
d0
86
b1
21
d4
1b
ba
f7
f6
38
98
0a
32
40
11
0b
cb
c9
1c
af
f4
ce
7f
fa
e7
c0
11
47
5d
e1
0b
da
2f
24
4f
a9
dd
05
e9
d7
c2
f1
23
10
10
e5
dc
11
bf
e0
33
89
2a
d2
13
9f
f1
da
27
e2
27
a6
1e
f1
1c
a5
f6
4c
be
e0
e5
49
22
13
c9
20
a8
2f
2a
23
cb
94
2e
ee
fb
ff
36
3a
e6
37
a2
d3
8a
e7
e0
eb
3f
44
a9
bc
ef
e9
8e
ad
eb
2b
65
ed
31
61
4f
14
25
6b
3d
53
cc
41
15
e6
17
f8
2a
b7
06
20
af
9d
b7
37
31
bc
d0
b4
c5
65
3d
e8
26
1e
21
e1
eb
28
33
5a
cc
e5
73
7b
12
7f
23
49
61
56
f6
79
06
d3
57
f9
f7
4c
ee
d8
b5
ec
be
ee
c5
2d
24
02
2d
df
c9
03
58
ff
2e
d7
eb
c9
4d
fc
f1
f8
0d
0b
39
1c
8e
a1
13
82
a6
6b
b4
ed
eb
c8
2a
e1
e7
d5
1a
e9
2c
08
a1
12
13
aa
e9
c1
25
36
eb
61
b7
a3
d7
0c
c2
f9
33
e9
d8
dd
06
92
8b
13
26
da
81
b8
c1
eb
fe
3e
39
01
c3
35
36
09
d2
ca
31
dc
5d
b0
10
dd
3f
5d
30
05
c6
d3
ce
5f
f1
86
2f
4b
c4
1a
07
14
3f
37
f4
42
e9
2d
aa
e6
d9
28
36
1d
da
e5
4d
4e
29
c3
06
ed
31
bb
42
f6
da
07
e2
83
1f
ed
5c
c4
3b
bd
c8
2d
22
0a
cd
16
c3
f0
81
d5
44
a9
92
3c
13
e1
45
88
c2
c6
f6
e6
45
0f
2b
cf
34
59
c2
ee
d0
20
f7
f9
4f
81
49
09
38
03
0f
08
20
2d
c9
cc
33
f5
c4
0d
cd
aa
17
fe
c5
f3
27
21
fe
0c
e7
05
18
bf
d3
38
e2
1b
2c
0b
d0
b4
c7
f2
a1
0a
e2
39
0d
09
2c
df
17
ed
d8
ed
09
17
92
e1
23
d6
ad
c6
08
24
be
fa
c5
c0
0a
c9
10
b4
0a
02
06
e5
f4
d1
cb
bc
fe
a1
51
c8
eb
03
fc
d9
2e
ec
39
12
c2
d2
08
17
61
2e
ba
9c
f7
ad
db
b0
12
39
df
c9
c2
f3
35
cc
01
08
26
15
c7
2e
3e
e5
ef
be
00
11
bf
b4
29
0a
03
d5
56
0b
25
af
7f
41
aa
f8
e2
57
ff
d5
21
02
55
52
d9
25
fd
06
16
25
b5
d5
13
db
1f
f8
20
44
ea
db
00
1a
f1
a2
67
2c
14
e4
0e
39
1c
57
1a
2c
fe
ee
fb
2e
3f
08
20
23
26
22
14
f4
4e
45
1c
ec
18
c8
35
35
72
f7
c0
2e
c3
09
13
b5
08
fa
7c
a4
09
13
14
73
f7
a9
4c
ef
9a
81
ca
d6
45
4b
24
12
cc
95
f1
e8
2a
07
45
0f
e3
b3
fa
33
25
0c
bd
e3
39
f0
3e
f5
aa
0f
05
1d
02
ab
01
35
20
2f
a1
be
c6
d0
c9
f9
00
ea
1a
f7
09
3f
31
f9
b9
ec
24
55
cc
49
e1
d8
0e
0d
3a
08
d1
2a
b0
8f
cf
0e
03
19
48
a1
cf
07
f8
fb
e1
82
35
b9
9a
9b
e3
f7
56
7f
c4
ba
06
fd
0f
f0
26
af
f9
f4
0f
1f
de
e5
ed
f7
2b
fd
f7
ed
f9
f3
f1
17
1c
ed
16
e9
f9
da
1d
30
f6
07
2b
f0
13
dd
e4
e6
05
05
d6
fa
e1
14
2e
d0
18
e1
e5
23
07
01
df
c4
e6
1f
19
fe
ca
e0
05
08
12
d6
eb
d7
f8
e6
fa
3a
0d
ed
fa
c1
e0
81
e6
cb
df
ee
e8
e5
41
2c
31
0e
cb
03
f7
e3
e3
ee
d5
18
3b
f9
e7
0c
09
f8
0e
e3
cf
d6
00
00
ef
ec
de
e2
df
dc
03
1f
de
f0
15
1c
0a
1c
f6
d6
08
04
4e
03
fe
2a
e4
1d
13
d7
d9
b9
0b
da
bc
ff
e0
e9
d9
c6
ca
cd
f0
55
2c
e3
0e
ea
f2
be
b9
81
9a
1d
78
53
d3
b5
d9
f0
fc
25
f8
f0
00
d6
e1
e4
e9
1a
37
ed
bf
f7
93
1b
da
eb
1a
20
0a
1e
03
51
13
0c
09
df
e5
ca
e8
40
db
30
08
15
2f
cd
f6
11
14
c2
e4
24
ff
31
e1
dd
10
7f
ef
f6
d6
df
2d
29
33
de
4e
24
0e
00
f0
00
43
c3
d3
a9
ff
cc
cf
06
dd
c3
3d
1d
f5
b3
ee
e0
14
e2
d2
c6
85
35
38
f7
dc
42
0a
d0
d9
01
54
d7
60
d4
2b
0a
18
ed
81
b4
bb
e5
e1
e2
f2
5f
4d
48
56
d2
ea
23
22
e4
1c
a1
c5
25
f4
5a
f8
ba
4d
54
13
8c
11
8d
de
14
fa
1a
13
cb
42
6b
a7
30
23
22
c2
9d
c0
47
02
c2
10
ba
03
c6
b4
e3
e4
e6
00
2c
59
18
e9
00
fe
1e
02
fa
1b
29
35
31
13
e6
ef
d4
b6
03
31
0e
65
d5
f1
21
43
37
3f
e4
ee
23
1f
05
1b
23
35
55
37
f0
d4
14
1d
20
da
40
08
f9
0a
de
4c
de
5e
fe
06
16
1f
3a
1c
d9
fa
e4
ad
13
e1
7f
f7
eb
f4
c6
33
fc
11
38
07
00
24
22
d8
38
