// Layer       : conv3
// Tensor      : weights
// Shape       : (64, 32, 3)
// Dtype       : INT8  (symmetric, zero_point=0)
// Memory order: addr = oc*(Cin*K) + ic*K + k
//               oc in [0,64), ic in [0,32), k in [0,3)
// Total words  : 6144
// Per-channel scales (oc=0 first):
//   oc=  0: 5.44076413e-03
//   oc=  1: 7.28515629e-03
//   oc=  2: 6.62879320e-03
//   oc=  3: 7.20033515e-03
//   oc=  4: 6.29855273e-03
//   oc=  5: 7.70425890e-03
//   oc=  6: 4.66981158e-03
//   oc=  7: 6.47464069e-03
//   oc=  8: 7.79946335e-03
//   oc=  9: 8.73304717e-03
//   oc= 10: 6.42716279e-03
//   oc= 11: 5.71786752e-03
//   oc= 12: 4.63640690e-03
//   oc= 13: 6.87502557e-03
//   oc= 14: 6.41969778e-03
//   oc= 15: 5.61594684e-03
//   oc= 16: 4.04119724e-03
//   oc= 17: 5.32375462e-03
//   oc= 18: 6.05171919e-03
//   oc= 19: 5.54018095e-03
//   oc= 20: 4.10645781e-03
//   oc= 21: 6.57650223e-03
//   oc= 22: 5.77036664e-03
//   oc= 23: 5.98681206e-03
//   oc= 24: 5.92795201e-03
//   oc= 25: 4.82016243e-03
//   oc= 26: 3.89489694e-03
//   oc= 27: 6.94910716e-03
//   oc= 28: 5.36915986e-03
//   oc= 29: 6.27914583e-03
//   oc= 30: 8.81356373e-03
//   oc= 31: 5.36002358e-03
//   oc= 32: 5.13425190e-03
//   oc= 33: 4.88367025e-03
//   oc= 34: 8.12264346e-03
//   oc= 35: 6.96477434e-03
//   oc= 36: 4.60337056e-03
//   oc= 37: 3.01754475e-03
//   oc= 38: 3.50396242e-03
//   oc= 39: 5.23744943e-03
//   oc= 40: 7.32031045e-03
//   oc= 41: 6.87944749e-03
//   oc= 42: 4.62843524e-03
//   oc= 43: 7.35617103e-03
//   oc= 44: 6.10492751e-03
//   oc= 45: 4.42710472e-03
//   oc= 46: 5.69832837e-03
//   oc= 47: 2.99712690e-03
//   oc= 48: 8.64605978e-03
//   oc= 49: 5.64900739e-03
//   oc= 50: 5.20942220e-03
//   oc= 51: 7.21915951e-03
//   oc= 52: 4.29427670e-03
//   oc= 53: 7.58327451e-03
//   oc= 54: 6.67068735e-03
//   oc= 55: 5.96068334e-03
//   oc= 56: 5.54178609e-03
//   oc= 57: 6.59239106e-03
//   oc= 58: 5.13435900e-03
//   oc= 59: 6.90677715e-03
//   oc= 60: 9.12897289e-03
//   oc= 61: 4.68229037e-03
//   oc= 62: 4.48505627e-03
//   oc= 63: 4.74996679e-03
// Use in RTL  : $readmemh("conv3_weights.hex", rom_conv3_w);
//
90
dc
17
30
da
24
87
cd
ff
f9
00
1d
e1
b2
01
ec
e8
c2
33
ec
db
e9
d8
13
0b
fa
db
17
12
f9
b8
2f
c5
0d
b1
49
10
b9
ee
f6
50
14
f8
f3
d5
ed
ea
d2
d5
15
48
42
ff
fa
1b
e8
30
1f
d8
c6
13
d3
ee
e7
17
08
ed
99
0d
c3
b5
fb
d7
27
05
12
3a
23
e8
2d
35
46
1b
19
0e
ad
55
81
42
f7
e4
0c
de
20
12
b4
1d
76
1b
1d
42
88
eb
1e
d3
26
b8
4e
a8
41
50
f8
4b
3b
f6
ed
45
02
3d
d2
ed
7f
f1
3b
d4
be
00
18
c6
fe
d2
19
9c
e6
1f
ce
13
0d
f7
f6
14
ef
34
f0
fc
14
af
36
e0
f2
d9
2d
21
d6
35
0b
e1
04
dc
f4
b7
28
50
f0
0a
d5
09
cc
ec
06
0c
ab
e1
46
e1
21
39
ad
f5
4d
53
f8
f7
f5
03
40
0a
0e
f6
d4
1f
d9
81
06
17
50
03
c0
82
23
39
09
47
6a
12
9b
20
2a
f8
dd
ea
21
19
eb
3e
28
1a
15
0b
fe
fd
c9
19
21
ed
24
04
fa
f9
bd
10
66
03
f5
df
18
05
04
f2
f2
f9
fd
95
d0
ed
36
00
ed
ff
4d
cb
e5
aa
d9
05
f6
0f
3b
0d
ed
ce
d4
ce
06
de
f5
e4
28
39
38
c8
0d
1a
d3
ef
47
81
ea
19
07
1a
d7
21
48
b3
a4
10
41
fb
46
df
da
c0
fd
ac
c9
22
1a
d4
15
bb
58
d9
1c
5f
e4
cc
f5
40
3e
58
2a
15
2f
a8
22
e1
ba
13
d9
e3
d9
df
6e
0b
e6
cd
fc
e5
f1
18
f0
e6
fb
ec
3a
09
03
17
3e
32
f1
15
44
c9
05
27
e0
0a
db
dc
ee
e4
ec
09
d2
02
13
f0
a7
13
3f
e2
d7
29
df
da
3b
c2
c6
c4
7f
10
23
15
eb
1f
60
fb
10
c8
eb
09
ce
c8
da
1b
dc
b1
f1
d2
f9
14
1a
fd
ff
0f
f2
b8
e1
cb
e7
25
05
81
2a
27
2d
19
d5
d6
1e
04
e9
f6
22
16
f7
a2
21
f3
33
09
30
e7
8f
2d
d9
26
07
ff
1f
08
ee
f1
d5
f0
32
ed
e4
0e
34
fd
8c
02
da
0f
25
1a
0a
10
b5
da
11
20
1a
b8
27
ae
14
ef
f2
a4
dc
21
56
d4
ea
d4
df
f1
fb
d9
0b
ed
0b
e5
2d
00
d0
0c
15
ee
e5
3f
bb
eb
23
f4
04
38
f1
28
f7
43
1b
2c
01
ea
23
18
05
bb
e0
08
21
f4
d4
f8
c7
d0
f7
c7
25
f8
1e
04
fe
05
81
f3
2f
e7
29
f3
3e
c6
de
17
e7
fc
09
ff
f0
19
f6
ff
c0
12
15
fb
b3
03
f4
d5
05
0f
f8
fc
e9
e8
18
d4
f5
15
22
34
e2
5b
f6
d0
07
1d
2d
c8
29
f8
2b
10
fa
30
0b
f8
ff
06
0f
78
47
2a
e7
bc
f8
2e
e2
17
b0
db
4c
c9
40
cd
d7
f2
2a
09
26
ee
3f
e6
b2
81
ac
ce
15
0e
2b
b7
f3
2a
09
ea
de
1c
fa
bd
36
e8
bb
0e
14
17
cf
1f
cb
ce
bf
03
ea
d4
0f
c9
33
08
ef
ba
cd
c3
f7
bf
06
df
03
07
4d
c5
02
f4
3f
1d
21
1f
1d
13
0f
2b
f4
ed
01
ee
d0
e7
a4
00
03
f8
17
d8
fb
1f
2f
63
fc
18
07
fa
ce
ef
f8
36
bd
26
1b
b7
dc
dd
01
81
ca
44
9a
22
d8
d9
b4
f4
05
01
dc
1f
fc
10
0a
29
d4
ec
10
fe
d4
fd
e9
4d
d4
ff
0d
ca
25
e8
24
70
eb
f7
ab
1c
1c
c2
fb
cb
c0
6a
22
31
eb
e2
f9
14
0e
be
44
35
ff
13
d5
13
14
e6
df
12
05
db
f1
e7
e1
2d
17
f8
bd
29
d8
db
0c
e4
b5
1e
f9
57
f7
f3
eb
e0
dd
13
23
f0
d1
d5
f7
14
c1
f0
3e
34
1a
fa
f0
16
e1
17
0b
32
a6
ff
e0
24
10
21
bf
06
0a
d0
0e
23
16
10
e0
fe
1b
1d
fd
cd
0e
20
d2
d8
dd
04
13
fd
0e
0c
0f
f0
f2
e5
20
3f
f6
1c
fa
11
17
0c
14
e7
f5
40
0b
d1
1d
d4
db
01
f1
e1
df
08
04
35
09
10
0c
fa
d5
5e
fd
fd
81
34
08
c4
16
f9
da
ca
15
81
0c
07
f4
c7
47
e5
eb
20
12
21
e8
af
ce
ee
e5
cc
fb
af
ba
bf
ee
2a
45
2a
00
ef
de
18
0d
3f
f3
e5
e3
1d
e8
ed
09
52
16
fa
c6
09
d4
da
14
17
dc
ec
e1
f4
11
f4
0b
f4
dd
21
15
33
07
d5
e6
01
0b
31
26
fb
f7
20
f2
ce
08
cd
e6
0f
35
04
d7
1b
28
df
0d
b2
e3
e0
ef
30
b7
04
10
22
fe
d0
1a
dc
af
18
fc
de
11
3b
b6
5d
0b
e6
fe
1a
e3
c3
2e
1d
15
07
18
92
1f
0d
20
0c
d8
14
33
08
de
b8
09
44
ea
ea
f4
32
e9
18
00
1c
15
05
3a
d6
16
1f
1b
04
f6
0b
12
04
f9
0a
ea
44
f5
01
d6
37
06
13
cd
b2
08
b8
00
f9
db
26
12
d1
f0
3e
f7
33
b7
0d
18
e0
fd
d9
81
34
59
09
e6
29
40
f9
03
fc
11
bd
8f
07
2c
ad
a5
bb
d0
a1
f3
20
ce
c6
ba
18
cf
ba
ea
0e
14
a5
13
0a
e4
e4
e2
e2
01
1c
f1
7b
19
dd
07
3f
28
d0
29
0f
f1
b5
e9
00
dc
10
c6
1b
e6
cd
9f
1c
cc
1b
1e
cc
18
ec
13
00
06
df
41
be
22
f8
cf
2d
47
05
c7
f4
21
3d
ee
67
e5
24
fc
ef
2b
d9
02
dc
28
4d
e7
37
aa
cb
16
7f
08
0f
c5
d3
e2
b3
d0
f8
d7
e6
aa
0c
dc
d8
a7
cd
1c
06
ba
b8
ff
7f
ba
b0
1e
38
f7
66
41
11
ca
1b
48
39
1e
e7
02
c9
df
25
c8
12
39
e5
23
3f
0e
3e
4c
11
bd
43
12
de
fd
0c
eb
c2
fb
20
ea
06
f4
c5
02
2a
51
43
f4
ee
33
b7
19
f7
f5
0c
26
eb
3a
e3
22
30
1d
c0
fe
ed
0d
b8
a3
24
61
f7
07
09
23
35
cc
6a
0e
ec
4d
46
cf
05
17
53
f9
13
ec
3f
cd
22
d3
da
d6
bd
ee
2d
df
c9
d9
e0
0e
2c
12
12
0d
35
3d
26
b3
67
c2
14
c2
06
f4
d7
aa
32
fa
fe
fb
ea
da
fa
a0
18
39
f2
2e
fb
2d
13
02
26
e9
e4
fe
2a
05
3e
1c
d1
21
1f
c8
02
17
f7
d9
16
33
07
08
c9
e6
11
f9
e1
0b
bc
13
e3
16
de
21
e8
2e
f1
23
81
13
fd
0b
0f
12
4a
1a
0b
f7
99
3d
fa
d7
0d
14
c4
21
0e
ca
26
0f
37
cb
d5
ce
53
e9
fb
c8
e5
0c
7f
33
ff
9c
e4
20
d4
0d
f0
15
e3
ac
48
d5
fe
0a
96
e3
d0
59
12
fe
d2
ef
bc
ec
47
cc
de
33
1b
e4
15
fe
f0
3a
be
29
05
17
eb
77
cb
16
06
fc
be
12
fd
07
ea
d8
fa
01
06
f6
37
ee
e6
e2
c5
11
56
33
dd
18
00
39
06
e7
15
dd
e6
ff
36
bd
2a
cd
fd
d6
fd
f2
e2
26
29
2c
f7
dd
0c
f9
e8
3c
30
3d
04
08
c5
f0
9e
be
b9
d4
e2
01
05
21
14
5d
dc
40
2d
3b
16
81
1b
08
f0
f1
de
00
2c
e4
f6
f0
d0
14
d3
1a
c5
1a
e3
e5
04
0b
1c
fe
31
f0
04
ef
22
ef
f5
d5
37
ec
ae
d8
eb
05
bb
e6
e8
f8
4f
0f
44
e7
32
1c
2f
02
2a
f6
15
e7
d0
15
df
f1
c4
11
f4
67
fb
bd
e4
dd
b7
53
7a
fa
2f
dd
66
1d
20
24
2b
4e
00
fa
c0
b8
26
6f
cb
e9
0b
3b
08
59
e3
ef
cf
d0
f1
54
0f
5e
41
ab
1c
20
c3
b4
15
fa
a4
e6
4f
19
e6
ac
2b
f3
ff
e0
f1
3a
81
ed
fe
db
ed
e5
09
04
f6
a7
51
fc
cc
c4
08
3e
f9
0a
de
f2
64
46
0d
59
b8
e4
4e
ba
c6
1c
0d
f1
ca
cc
26
ef
9d
cf
2b
f2
17
e4
08
ff
54
ce
cb
20
4b
f2
c1
16
16
0b
4a
4a
17
93
f7
bf
22
3e
9a
f8
45
d2
da
c3
0f
2e
07
de
19
c5
13
fa
07
02
fa
17
14
48
07
c6
ef
28
49
1d
d0
1a
d1
32
48
7f
0f
e2
be
50
da
f1
f7
f1
14
f8
f9
2f
1d
f9
f6
27
cd
41
e0
54
d5
58
fb
5c
05
be
2f
50
fc
dc
d6
ff
09
e3
f8
2e
3e
02
f0
09
c9
d9
df
21
1e
29
4c
c9
f3
e3
53
16
b1
e3
11
81
c6
c1
f9
06
f5
d0
ed
91
32
fa
3e
2d
d4
24
cd
a7
b9
17
e8
de
ef
3c
ff
55
c2
f9
fa
09
3d
9e
33
b6
f2
01
cc
c5
c8
09
28
ab
e4
d6
be
d5
c1
1e
11
09
ba
08
09
ed
3a
3f
04
41
ef
f3
24
e6
58
ea
ec
bb
c0
d9
f6
b5
8f
f3
b1
f3
3c
34
fa
eb
cd
f8
d5
eb
cb
0f
4b
34
42
db
ea
17
c7
d1
fd
e6
05
ef
f6
bf
35
24
ef
01
44
ca
bf
28
19
2a
ea
24
4c
f0
b3
90
d8
45
ac
f2
0c
00
ce
12
f6
47
fd
16
f6
ba
03
4b
e1
cb
ce
d2
cb
10
bb
de
13
01
db
e2
f8
44
14
a6
e8
55
20
31
7f
de
41
de
fb
10
ef
45
03
1a
ec
0d
1d
da
af
02
36
c1
a6
46
0f
37
14
04
f5
e4
bd
fb
13
f2
1d
2d
eb
fc
30
e0
14
de
06
fe
d0
9f
0a
0a
c3
c5
ac
63
61
d1
3d
e4
a1
d4
df
56
41
e5
d9
9d
e6
b1
0c
37
58
fd
f0
06
1c
39
c1
e0
a9
1d
3d
c0
25
ea
da
27
31
0e
d6
a6
e3
e4
16
ee
06
06
0c
41
02
e3
c7
dd
07
3d
13
bc
d4
f7
4f
20
02
24
12
08
f6
9f
1d
1e
a5
7f
c5
13
ea
09
ed
13
24
14
3f
bf
e6
00
49
1e
cc
e7
15
db
2d
1e
d6
e8
d1
13
2f
05
d0
f1
26
28
ed
13
ec
11
c6
00
f9
d0
1e
37
9c
01
92
02
fd
06
e4
1b
4c
e1
16
11
2f
cd
03
0b
3f
f0
15
54
ef
dc
31
4d
b4
ec
d9
f8
02
10
c4
34
06
19
f1
e6
ec
38
f4
bb
01
f6
d7
1c
ec
1a
00
ee
21
b6
e1
f2
45
81
e8
d5
d0
fa
a8
09
ff
33
ea
25
c7
e9
68
8d
aa
32
db
e7
06
05
a9
1b
ba
1a
02
d9
db
2f
b4
88
04
09
29
9a
3b
4b
a1
04
1c
3b
02
f8
c4
eb
db
23
4b
de
00
d5
d4
3c
b0
fb
9d
d0
98
08
bb
5d
d4
25
38
1f
29
46
b2
08
d8
3d
db
0c
22
17
59
d3
df
3d
bd
35
52
ea
ef
13
91
cd
26
03
07
3f
d8
e8
ec
18
0e
6f
0f
ac
26
e2
31
81
0f
1b
be
0e
d4
d0
d1
48
cd
f6
ff
38
11
e3
2b
ea
1c
ee
d4
fd
1f
fd
23
fb
ee
54
36
13
31
c8
81
e6
ca
16
bf
da
2d
c6
41
f3
ad
06
f9
28
0b
bf
02
fc
de
dd
11
cf
3a
44
07
f5
ec
d1
0e
2c
ff
d7
12
bc
ea
e2
14
3c
f3
f1
07
e8
c1
b7
02
f3
ec
af
e0
2b
32
bd
56
11
07
05
25
ef
fd
50
db
fd
09
55
b7
e2
f0
30
26
08
24
23
15
05
09
e0
0e
14
dd
36
e1
32
41
0d
e2
e9
37
18
dc
01
24
de
e2
37
07
07
81
57
1e
cb
e2
07
0d
e2
ca
34
a3
19
e0
e7
e1
09
39
f3
17
da
d1
fc
12
14
e8
4f
d8
03
03
d8
01
be
0e
d0
17
14
34
15
d3
d6
44
c6
1a
f9
d6
dc
11
ce
c7
dd
38
0a
ed
10
f5
00
ed
3d
0e
13
f4
1a
31
26
da
24
c6
42
c5
e2
b7
4a
21
4b
67
2c
16
7f
f8
d2
cd
29
47
26
c0
c3
02
3c
f6
f3
05
32
90
4f
e2
4a
1e
11
3b
ed
37
af
01
2e
e9
43
2f
54
0c
40
54
a9
c4
04
11
a8
bc
11
19
ca
12
a6
47
04
b1
38
cf
4e
18
e7
d9
e8
cf
38
2b
2b
27
15
fb
1a
f0
24
d1
42
c7
67
07
3d
c8
e7
f1
c3
b5
2b
3e
fd
37
e4
d4
eb
0f
e6
f5
b5
5a
f5
47
11
34
45
18
a6
2a
1c
38
da
19
06
23
fe
fb
81
33
f1
e8
57
4a
d5
08
f8
de
ef
bd
d7
21
3d
ae
b1
1c
e6
5c
23
f6
b3
38
ea
50
d0
19
d6
e4
e2
0d
ac
ea
d7
1b
0c
0f
d6
15
de
c3
4c
eb
f4
2b
58
13
3c
c0
03
43
0f
09
9a
cd
c1
ed
b1
0a
1b
0a
bd
33
3b
ee
91
dc
f7
45
27
4f
a4
a3
41
35
a1
e5
ec
9c
02
fa
f8
c5
1a
46
0f
e6
f6
4e
f1
32
42
81
f7
07
14
07
3d
1c
25
6f
f5
43
22
e6
1f
f4
b2
05
c2
0f
3b
ee
da
12
dc
09
c6
fb
e8
f2
07
3b
02
1a
d1
43
49
ee
3e
34
06
cf
e0
4f
1e
e5
17
e5
08
36
d7
bd
1f
d9
1b
d6
ea
f5
db
c9
9b
ef
0a
fa
07
0c
fc
1f
e5
ee
f5
fe
2f
e7
eb
ed
f2
29
f1
f8
2f
05
37
fa
0f
0a
2d
66
8f
63
b1
33
b8
d2
e3
34
1b
e5
16
dd
42
31
36
31
bb
66
24
23
a1
91
40
37
4e
f4
b0
dd
fc
c9
e8
2a
dc
e7
62
a8
f5
cb
c6
3a
53
3c
42
41
e9
bc
2b
cf
11
40
09
ed
d2
fa
13
51
00
f2
1a
23
0f
c0
c9
7f
f9
d2
d7
62
d5
e2
38
2a
f3
09
d5
f2
de
cd
16
2c
22
22
18
54
ef
56
fc
e6
2f
22
e6
28
df
d6
c6
81
e6
f8
fd
19
f8
ea
f7
fd
c2
11
5c
cc
bc
cb
ee
fe
d7
4a
f5
dd
df
37
3f
02
18
3d
00
24
3d
bf
cf
f9
e1
ce
e7
d6
13
34
f5
d3
23
fa
f2
c9
12
34
0a
e8
db
ec
20
f0
27
fb
ec
36
1c
bb
e5
d5
15
bc
f6
d2
0a
d2
1f
30
b9
16
32
28
bd
ef
4e
e3
ff
e0
e1
e8
37
e3
d9
c6
cc
c0
44
38
02
e7
fe
0a
2f
2b
c0
bb
d3
1b
19
f2
e3
cc
20
cb
ed
ca
01
42
e5
cd
41
56
30
2d
2b
de
05
07
7f
fd
27
24
d4
1c
f5
d8
d3
c1
f4
c4
dd
ff
06
1f
13
3c
fa
f4
e2
b2
0f
f1
0e
10
26
20
2b
fc
31
da
02
f8
1c
c8
27
be
3e
00
cf
03
f7
22
01
59
b7
2f
22
f8
f7
ea
0a
e8
ff
33
fb
0b
24
fa
0d
3f
b1
c7
12
cd
f7
ef
01
f3
0c
95
14
2d
d0
be
37
00
b3
4a
e1
35
fc
2c
db
21
42
13
97
c7
f5
bd
30
5d
0a
21
c4
33
9c
e3
32
0e
2d
04
e5
9f
09
3f
4c
d0
60
1c
22
f1
d2
e5
00
02
db
c7
00
39
02
15
02
11
07
f4
15
f9
1d
33
ef
d1
ea
f9
eb
f4
ea
23
c6
81
71
1c
15
e9
20
0d
ce
d1
1c
ff
1b
e6
d7
17
33
20
0e
db
07
e3
fc
f5
c0
f7
16
47
ea
39
fb
89
31
26
15
68
27
e2
ef
b3
dc
28
f2
1b
26
1c
05
d7
9e
dd
4f
05
e9
d3
c9
42
07
bf
40
55
1f
03
20
3b
ff
53
e3
f2
0b
0a
cb
c0
00
3f
41
1c
f0
ec
eb
bd
0c
be
dd
26
37
70
e9
1e
14
31
d0
f9
32
6b
bf
b0
0a
21
81
e1
07
28
e0
10
a6
e0
d5
ae
26
15
d0
45
19
45
9a
e5
27
1d
15
ec
dd
23
26
c7
f8
27
dc
16
08
0b
a2
05
cd
16
3b
6e
7f
ce
d3
2d
3e
0a
f2
25
e2
30
e0
1a
44
cc
c2
d4
fe
35
c3
f7
f4
39
d0
c7
f8
2a
09
5c
02
4a
2c
e4
3b
b3
f5
fa
cf
34
41
e9
e7
be
04
d9
d0
1e
ee
04
fa
23
24
09
e9
e8
39
15
ed
c4
d2
34
08
e7
22
49
28
27
bd
d0
e6
f4
45
11
d5
cb
bc
df
3f
e0
00
19
f6
db
d3
dc
d5
0d
bc
b1
d2
21
b9
2e
d6
e7
00
ab
24
08
c3
1a
ee
a3
ec
e0
14
1a
f6
e0
09
0a
fe
e3
1a
0c
c8
f0
c0
cb
0f
da
0d
4f
0c
db
ee
e8
cd
df
1a
d5
c8
1c
fe
44
eb
df
24
e8
20
66
0e
1e
d9
f6
cb
e8
2d
4e
00
04
0f
02
1e
be
13
28
f0
08
30
25
db
21
3e
27
3a
f6
81
1c
bf
29
d9
f4
03
07
d8
ef
cd
bb
a9
b3
ef
22
f1
95
b7
18
cd
09
1d
e2
e8
26
37
e7
e3
0f
f3
17
4c
fe
ec
1e
d4
3a
04
81
e0
c4
0b
0b
ef
e0
1c
fe
ab
e3
e6
32
07
03
d1
04
04
fb
1c
01
11
fa
04
18
0e
1f
f5
ef
2d
42
f7
46
fc
07
16
f5
82
0b
11
ff
13
cb
c5
08
34
09
e4
ec
30
12
d2
ef
e7
35
1e
4d
03
ce
1b
1e
f1
1f
1b
de
eb
fa
e2
15
e1
38
37
33
81
c0
a6
03
f2
52
fc
36
09
f0
4b
4b
32
f0
c6
27
ac
c7
55
0c
00
f3
f5
2b
9d
05
f0
df
d9
df
f2
dc
46
68
eb
ac
26
ee
fc
db
c7
1d
ec
f7
d6
b7
f2
28
24
9f
fc
49
06
0b
32
f2
50
0f
f0
16
e0
14
f6
bb
f6
44
f6
d6
f1
e2
50
e1
3b
ed
23
28
49
0a
00
17
06
14
1c
e9
f4
0a
40
16
a3
f5
0f
b5
15
02
9c
e9
0d
f0
c7
30
28
04
1a
fc
3f
b4
ee
9f
de
af
85
e8
e1
02
95
ee
e4
81
b5
ba
b4
89
21
2a
0e
e9
e8
ff
2a
bd
f2
c3
cc
be
f3
f0
ee
f2
b8
25
84
bf
11
10
00
d5
f2
c7
f4
0a
e3
de
16
d7
d7
0e
eb
1f
05
e8
d3
ea
cc
48
d7
ea
f6
d5
f5
d1
29
11
eb
f0
19
45
1c
fc
1d
0f
d8
f4
18
f5
25
0d
0d
fd
c1
39
f4
10
f1
12
96
6b
0b
08
38
02
b8
d6
26
e0
e3
ec
16
03
fe
01
49
de
09
05
5e
cb
a7
81
ad
33
ff
bc
b0
eb
0f
e8
c1
4b
af
16
d7
39
c3
e1
45
32
e9
17
e1
f7
0b
13
d1
62
51
40
f2
ec
c8
fa
e0
20
f8
be
d9
a2
cf
31
36
11
9d
16
db
bf
da
cd
42
34
20
17
d5
e7
fb
e1
2d
18
06
da
18
bb
1b
fd
06
0d
b8
21
f5
f5
d1
ea
01
c1
0e
02
12
cc
05
e7
d9
33
37
e0
08
00
df
22
3d
10
dd
17
13
18
fc
0d
f0
49
a5
fb
9a
eb
3c
e9
ea
bd
c9
24
fd
10
28
23
21
b6
45
e6
0f
24
21
4a
c9
06
b7
01
5d
d1
24
ea
de
0a
e9
c4
e2
d8
50
3c
da
1f
95
7f
02
1f
03
f4
da
f3
1d
47
e0
c9
18
af
18
6e
0e
0e
f1
11
c4
09
f9
dd
c1
e8
6c
1a
ff
dd
28
e8
41
2c
29
48
13
cf
f0
e7
26
12
0f
2e
28
22
1d
14
f3
d2
f8
c0
20
cc
ef
16
13
bb
81
10
03
c8
0c
f3
34
b5
29
25
1b
da
f8
1d
0b
28
f5
ef
d7
e9
ee
15
33
15
04
d7
01
23
13
0f
1e
fa
f6
ba
0e
c9
d1
eb
09
e5
d4
c7
01
28
bb
13
f5
07
13
19
0b
35
09
48
f4
ef
ec
f7
09
c0
0f
2b
28
1a
4a
c4
b2
c8
3d
45
24
23
14
6e
f4
5b
81
b7
e4
33
dd
19
de
e4
0f
36
c4
1c
e1
cb
09
c6
3e
ad
ee
fa
0d
1f
ff
cb
1e
f4
ef
1b
2c
0d
f2
ae
25
eb
d6
f2
21
eb
c4
1e
fc
d7
24
34
d3
df
0c
34
23
24
10
c9
f8
c3
07
aa
bc
21
d9
85
9f
ed
0d
2b
ff
15
ef
1b
15
f1
b1
44
56
9a
60
fe
e0
43
2b
20
d8
3c
f4
32
ec
cd
61
ec
f1
02
ef
db
ce
25
13
32
e7
b5
12
fc
e6
ea
f4
cc
3f
1b
ed
ed
1d
26
1e
ad
de
f4
ef
ce
0a
ef
27
d4
14
07
13
df
81
5e
1a
bf
e3
08
2b
2f
09
03
32
fa
f6
de
fd
ec
01
07
25
db
e9
48
e6
cf
27
1c
bf
f3
16
07
35
fb
dc
00
0d
c3
c9
fb
a8
2a
f5
dc
0c
ec
ab
3e
1d
fe
c8
2b
1b
0a
2d
f2
e2
0c
fc
d8
e5
ef
d3
f6
eb
f9
1e
06
f7
e3
11
16
e9
fb
16
c9
f5
15
05
d5
f5
ea
e7
de
e1
1a
d3
10
23
fb
24
c6
35
14
e8
26
29
fd
81
e3
14
f9
ee
e8
13
36
ee
d3
2b
eb
dc
ee
d3
c7
ce
ee
0e
fb
29
34
13
c5
eb
29
0e
eb
1b
35
c7
ee
0f
f2
ee
f2
da
4b
11
f0
04
25
f8
15
e7
28
da
f1
22
dd
2d
0d
11
02
cd
01
eb
a8
e7
ae
33
35
cd
08
35
f3
ce
2a
01
30
c9
11
f0
e7
dc
f8
c2
f8
d3
df
d2
db
e9
3f
c2
d4
fe
16
fc
27
6f
e9
e2
06
58
df
19
e6
c5
dd
ee
1a
0f
db
0c
07
43
eb
c8
d0
fa
fc
c0
59
05
4a
29
03
24
3a
ab
f1
49
33
0b
04
19
11
11
00
18
29
1a
f5
0d
81
30
e4
f6
2b
f2
0b
28
f6
13
c4
ed
e8
c9
05
0b
ae
f1
f5
1f
1a
28
ef
e1
00
03
05
9d
27
00
fd
7f
d3
f4
f1
e3
34
ae
f2
2c
d8
ae
b3
64
0d
12
03
1f
68
1f
3b
31
e0
af
d7
5c
d3
1f
c0
d5
19
e5
14
fe
b1
60
d1
f6
b9
c3
a4
2c
46
22
0b
35
23
68
a9
c6
51
db
09
ef
f4
fa
a3
1b
e7
dd
3d
c1
01
52
46
f4
d2
0c
df
07
50
03
f9
9f
1b
ea
d3
de
e5
cc
fd
f0
1d
b8
91
f8
cb
01
f7
04
ca
d1
0f
b7
20
81
2f
25
ea
07
33
f1
f2
fd
98
13
0d
e5
c7
4f
dc
2d
2b
f7
b3
fd
1a
37
b6
be
da
f4
04
30
f3
ce
f9
31
15
ef
2d
27
bb
0a
1a
25
f9
03
94
1d
47
fd
e5
e0
33
3f
0a
d4
cc
eb
49
e0
e6
c8
20
57
bb
3c
01
b9
14
30
19
c8
22
e7
c6
f0
28
21
ae
0b
ee
2b
e1
15
ad
a0
61
fe
f4
2a
25
2e
eb
d6
0e
58
f6
f1
26
5f
c1
13
b0
c9
f2
3e
0e
9a
92
09
b1
81
e2
01
f5
e1
35
ed
00
df
e6
2e
c3
df
a9
c2
51
ab
fb
0d
cf
54
ac
08
a2
fb
c5
22
ee
8d
bf
e0
39
2a
11
d2
bb
d1
ce
38
a8
e7
b3
e5
da
fc
0c
d1
33
dc
e9
d4
c8
0f
05
c9
e3
4b
14
48
14
3d
2d
cb
f2
10
f8
f3
38
bd
13
f5
10
f2
f0
e8
3d
13
08
08
ee
e2
04
35
bd
e8
14
16
0c
27
be
e0
ec
10
fb
17
cc
08
05
06
02
e0
d6
21
19
05
06
b2
ff
f8
da
02
43
3a
12
11
0c
13
e5
f0
13
f3
3d
01
1f
e2
16
d6
13
e3
f9
e5
07
cc
d9
fb
de
20
f4
ce
e2
0a
af
fc
e3
e0
00
dd
13
0a
3e
d4
d8
81
eb
34
29
93
cb
fe
e8
21
27
ee
0c
a1
f9
bd
b7
31
1b
e5
1d
27
4a
ca
4d
c1
e9
09
e6
a3
bd
b2
c5
e7
9d
2b
09
2a
09
e4
fd
e1
49
0d
14
f5
ba
0b
08
c4
0e
3e
ff
e9
f9
f1
0c
4d
a5
ba
cb
4f
18
81
8e
b2
56
1b
1f
db
10
48
1c
ca
35
ac
1b
fb
b0
16
31
ef
46
ef
db
3c
d0
15
ac
23
10
24
10
16
ff
d9
5b
27
d1
dd
41
f4
46
db
bd
ff
c4
04
e1
fd
1a
25
52
52
e3
0e
e4
e4
3e
bf
d2
5a
3e
33
c9
ff
df
a2
fe
54
cb
05
f4
05
72
f6
f5
6e
c6
18
c8
07
01
0d
c6
da
ad
f3
f7
46
29
c6
27
f2
12
01
36
b5
b5
e5
15
e3
d1
46
3a
58
ab
61
9e
1c
02
f2
d8
32
e9
e9
e0
be
25
de
f6
f5
19
23
c1
05
fd
10
81
2c
3e
0a
10
cf
90
fe
b4
23
29
14
f0
fb
20
c2
f3
62
de
11
d2
e9
1f
3e
0f
15
bb
54
b4
05
00
34
02
3c
e6
ac
b3
d7
a0
0d
f6
1f
38
e7
17
a1
43
d2
02
e0
fd
c3
ce
dc
20
cc
36
d9
35
d5
e2
3d
f1
15
3c
01
c1
9c
f2
17
cd
e2
db
3c
39
a6
41
d6
19
03
b9
c6
cb
15
40
06
14
d4
16
e1
43
17
2a
e8
3c
20
07
d2
54
1b
26
f0
04
0d
81
c1
f9
45
33
c8
bf
ff
23
e0
1e
0c
60
74
eb
ed
f0
2c
f9
35
52
de
48
61
e5
84
c4
0b
c5
70
f1
f8
ef
32
f9
17
b3
60
3d
3e
c9
26
1a
0c
6a
ec
df
d2
32
0b
37
81
10
f2
24
2e
d6
f5
ce
ff
b5
01
f9
03
16
4d
e7
64
f0
d8
d8
bf
2e
c8
1f
00
33
b7
d0
c9
d2
d8
59
fa
ec
b7
fe
fb
ce
bf
48
76
16
b6
0f
ab
c1
2c
06
67
13
0f
f0
d7
04
fc
0b
bd
e5
e6
28
b3
16
fa
c2
15
15
f3
24
36
e0
08
04
00
d8
cc
01
ed
06
e4
19
ff
86
07
b3
0f
f4
0a
e3
05
1c
20
a3
fc
d5
de
05
d8
04
31
f0
22
02
dc
1a
81
fc
f2
ef
0b
09
fd
07
f7
d5
f5
11
25
d4
10
de
f5
2a
2a
ef
ea
fe
bd
f0
1f
e0
1b
06
fe
ce
10
1c
d9
07
f3
24
d8
04
da
18
27
2c
e4
f5
e3
e3
04
f9
e8
26
aa
d9
18
da
b9
f0
e8
e4
f0
be
e8
05
04
1e
e9
cb
12
42
2f
1a
03
b7
dd
04
1f
45
ff
f2
15
22
d8
da
94
ee
49
d9
fd
d0
de
d1
b3
f4
31
24
c3
2f
e6
1e
1d
b8
e4
20
29
ca
07
08
fa
12
30
d8
f2
20
2f
1e
9f
f7
08
09
25
16
ea
4e
4e
07
ed
da
f6
0d
22
08
23
25
e7
89
32
2f
b3
81
bf
fb
c9
11
4c
cd
f0
1f
1a
3f
21
e5
f3
f1
1d
3a
c8
fc
08
2e
d7
d3
3c
08
c3
2c
5f
15
16
bf
2b
2c
81
14
6c
fe
e7
10
3c
62
ec
4d
4d
37
fa
d5
a8
d5
02
15
1d
22
fc
27
ef
e7
e3
af
c2
e4
a4
ad
42
09
23
23
f8
e7
21
c8
5e
06
37
db
50
d5
e0
df
fa
fc
a2
f7
27
0a
28
07
fc
e8
12
f0
16
0e
ed
ee
cc
02
14
4a
30
f4
e5
12
d1
fe
29
00
30
2f
ff
f6
1e
d0
21
f5
db
cd
7d
0b
cc
3f
21
ba
15
cd
c8
32
c2
c7
2c
f1
fb
d3
ec
17
1c
e1
2d
b4
9f
1f
c2
d5
e1
73
20
09
33
4d
44
f8
c6
34
fc
da
28
35
f2
81
ea
03
d1
ef
ed
77
19
45
66
04
f7
c9
ce
01
ff
fe
ed
da
d3
20
10
3f
f5
37
cf
04
b8
15
a7
a2
12
fe
aa
e6
1d
1e
eb
1d
1a
c9
bb
12
f1
be
0f
61
81
06
02
de
2d
f9
52
68
d8
2d
ec
3f
3f
ff
21
10
35
55
24
ec
62
42
28
cf
f6
f1
fd
d7
ab
f1
ee
f3
db
f6
3b
7b
c0
36
26
1d
18
0b
56
0f
04
54
52
c1
08
c5
54
3e
fc
e6
cc
f0
c6
99
0b
b5
d9
1c
e6
fb
9a
21
f0
10
ce
0b
a4
3b
23
91
81
28
85
29
29
b3
d0
e0
e3
41
4d
d9
f4
11
bf
f1
f0
0a
e1
04
c7
b9
54
10
16
0a
f0
0e
11
9a
f9
d8
f6
07
2a
a7
29
41
fa
fa
31
1b
2a
f4
f4
15
c5
5e
dc
a3
87
0a
50
28
f3
3a
a3
fb
7f
e5
f2
14
17
9b
fe
2a
32
a8
38
0b
36
52
1e
fa
da
d1
0e
03
da
e3
67
2b
b9
34
e2
c2
f2
1a
c5
2a
d1
f3
d3
d6
d8
51
5c
bd
dd
a9
e5
f6
4d
60
fb
0f
00
02
c5
e1
ed
c0
dc
f6
fc
17
35
ef
0d
eb
48
e1
11
f9
4a
f1
3a
39
e9
1e
06
72
7f
3b
ce
08
d5
ee
f0
1d
05
e7
f8
cc
fa
f2
db
f9
e5
dc
ff
03
eb
07
ed
fd
f0
14
11
5b
f4
b5
08
03
0b
fc
21
c1
04
db
0b
1f
22
06
0e
fb
22
d7
e7
23
f7
e7
d2
d7
f9
e0
23
f8
25
42
27
cc
a8
13
40
3b
22
f9
15
25
cf
f9
02
38
24
05
2f
55
3d
f5
f8
bd
50
e0
f3
33
9b
0e
c6
11
e0
11
d4
23
24
c4
29
d6
ea
e4
40
23
f4
d0
d4
0d
f2
de
09
03
12
3a
2c
41
d3
ff
d7
f8
f8
7f
d6
ec
ec
26
c9
ed
0d
f1
de
51
1b
fd
cf
e8
ec
f1
b5
08
04
24
e6
e7
ee
3c
02
c2
1f
06
02
f3
32
f7
f5
0e
f5
f1
26
48
de
df
d0
09
fd
24
a9
ed
1b
06
14
08
00
fb
d1
0a
ea
19
d0
df
16
ff
41
f1
f3
42
0e
ed
19
ff
d6
f9
7f
03
d4
ff
d2
05
39
16
25
ea
bc
e8
e5
ca
cc
e1
e9
3f
11
b3
bf
6a
26
fc
f1
c5
0a
3a
fb
e5
1c
ed
fc
0f
c2
d6
cc
c6
e1
5b
07
32
d2
03
00
e2
de
ea
1c
14
17
01
21
0d
20
24
d7
23
04
1b
f3
ec
26
fb
3f
19
c1
e5
11
97
e7
cb
f7
43
e7
fa
33
06
e9
41
54
86
39
05
f8
54
b7
c1
94
f8
c2
2a
7b
d0
19
ac
f9
e9
e8
f3
44
23
0a
fc
11
f7
ea
f4
4b
20
19
1a
30
28
2e
d7
57
d7
c6
c3
7f
5e
ce
fd
e8
3e
b5
a4
05
52
2e
19
fa
ea
a2
de
e4
fb
f1
ba
ba
15
07
33
40
ee
19
9e
0c
74
97
25
69
fd
a8
f1
00
24
dd
4d
34
f7
e0
35
57
ca
44
42
43
a3
4b
d3
a7
a8
2f
ff
ee
fc
0a
ef
24
17
c3
17
4d
cd
11
25
d1
51
cf
1c
ff
d1
3e
d8
fe
ee
e4
62
d7
e3
00
a1
1e
eb
dc
da
21
c9
bb
2b
06
c7
ec
6f
32
d2
bb
0e
21
20
b4
b3
b9
1f
18
d2
b6
25
01
74
c1
e2
21
31
15
26
ff
0c
0d
fc
16
08
1c
d3
e6
0d
48
7f
eb
19
f4
60
b6
3d
fd
06
16
1c
e3
30
ec
1c
4b
d7
b2
d9
0b
28
e2
0f
0f
