// Layer       : fc1
// Tensor      : weights
// Shape       : (64, 1472)
// Dtype       : INT8  (symmetric, zero_point=0)
// Memory order: addr = row*Fin + col
//               row in [0,64), col in [0,1472)
// Total words  : 94208
// Scale (per-tensor): 2.64212885e-03
// Use in RTL  : $readmemh("fc1_weights.hex", rom_fc1_w);
//
10
19
03
17
05
1a
1b
04
13
f8
0b
ea
e1
ff
f0
cf
e5
f1
ea
f4
fc
f9
07
db
fe
00
10
13
f7
1a
f9
df
0f
01
e2
fc
ed
f8
20
0e
1b
17
f0
17
f1
f5
e6
13
e3
f3
2b
01
e0
04
21
0c
22
1d
15
fb
f7
04
f7
04
01
01
eb
fd
f3
e9
2d
c5
0b
d8
e4
12
e5
1a
e8
0c
01
11
e6
e2
ff
0a
06
0c
f9
f0
fa
e5
09
06
13
38
1b
fd
0f
f3
04
f0
f5
f1
03
05
03
ef
01
e6
e8
f3
ee
f6
f6
e3
09
26
01
fe
17
05
09
f5
1b
fa
15
f1
02
09
0a
fd
07
1a
f0
0d
fc
f0
ee
e9
eb
16
00
2f
ef
cf
ce
ec
f3
15
13
f5
ee
f4
eb
00
f9
f8
f9
eb
f9
29
e3
09
f7
02
04
10
f2
f1
dc
eb
f1
dd
db
f9
03
13
ff
e1
e0
ef
f3
02
e4
09
04
fb
ed
bb
1f
0b
f1
f0
08
e3
fe
da
f7
22
02
0f
f4
e5
f7
fc
03
37
20
f8
17
ef
0b
d9
0a
fe
e7
e7
ea
ec
f8
07
0b
09
ff
f8
fd
f2
fe
04
f2
24
fe
06
fd
0f
d4
df
10
fd
00
f3
ee
04
00
00
00
fe
10
fb
06
fa
f0
1e
20
fc
ff
ba
14
f0
f3
fe
fa
e5
f8
ec
ff
15
fe
f8
eb
fb
fd
12
02
07
09
e3
0a
f8
e2
e0
ff
df
e5
dc
12
04
f9
eb
df
0d
16
ff
f8
00
0d
09
06
e0
e3
e3
05
f8
fd
18
08
e1
eb
f5
04
01
f0
e7
1c
0d
42
10
f8
f0
f5
fd
fe
fc
14
0a
0a
eb
06
0c
0c
0d
f8
01
f0
e0
ee
09
e3
ea
ee
e7
e2
fb
e8
14
fb
16
fd
b2
ff
f9
f3
1f
31
fd
fb
05
20
18
01
01
f6
f6
00
fb
fe
0b
e4
1d
e7
fa
03
06
db
15
fa
10
0d
04
ff
f5
f4
05
01
0c
09
fd
ff
04
f5
fe
0d
05
fd
ff
e4
05
f0
02
c3
ed
19
fa
dc
dc
fd
09
15
fb
f9
ea
fc
f8
31
fb
f1
00
10
f6
f9
f9
f0
dc
f8
0c
ed
fd
09
25
f3
0a
13
ee
e9
ec
fc
04
12
f1
11
e5
2a
27
eb
ec
d6
01
e9
df
fa
0f
18
f8
11
fa
f9
0f
f8
03
02
e6
04
09
14
fb
ef
f0
02
0b
f6
fb
17
0b
0a
d7
19
f6
fc
ed
f1
ed
f9
f3
f7
ff
29
1d
ed
06
fc
e5
ef
03
05
ed
e6
e6
e2
0f
00
f9
ed
f1
ec
e6
fb
3b
e0
fa
e4
e3
04
00
04
d4
f1
e3
e4
ec
f9
f0
f5
e4
ec
09
e5
f4
f7
fd
eb
17
01
fa
0f
f2
ef
f1
04
03
00
03
f5
07
fa
e9
f2
eb
ee
eb
f2
fd
f5
fd
04
da
01
f7
29
e0
02
ed
de
ff
0e
eb
e5
f1
f2
ed
fa
f1
e8
e6
ec
00
0c
f0
ea
f7
04
ef
f9
06
f5
0e
0d
07
fa
ea
0e
0a
0d
fe
fc
fb
fd
f7
1b
03
06
d6
03
fc
f4
0d
fd
0d
f4
0b
18
ec
f8
f1
f1
fa
f0
ff
e0
f1
f7
f9
fa
0a
27
fb
eb
ec
00
ef
01
08
28
ed
f1
ff
f4
14
09
14
e9
01
f0
f6
dc
ff
f7
e7
e7
21
30
fb
f4
da
f6
18
06
f4
ec
ff
fe
20
02
e7
f0
f3
fa
e0
f7
e7
e0
f5
de
eb
04
ef
f5
07
e0
f9
fa
ec
0c
1b
ff
23
13
06
f4
06
ff
26
01
f1
d4
0d
1c
ef
f7
fe
12
05
03
ed
ff
0b
18
f4
0f
03
0c
fb
f7
1d
09
e9
15
05
1e
09
07
09
e9
04
08
16
0d
0b
1a
13
0f
0d
0c
02
03
01
08
d0
02
08
06
fc
01
03
f3
f2
1d
18
d9
d7
f2
0d
16
01
f7
e9
fd
f3
04
e5
15
f4
f9
04
ea
fb
f4
e5
1a
15
f7
0e
fe
f8
0c
12
ff
05
15
fd
fb
f1
59
fd
05
05
e7
09
f6
e9
fb
0d
ff
07
fa
f2
03
0b
0f
14
f2
f9
03
f6
04
14
ea
2c
17
eb
11
ee
dc
16
02
03
e9
05
eb
f8
08
03
02
f8
ff
f4
07
fe
25
f7
d7
10
f5
06
0c
05
17
fc
fb
ed
ef
f9
ee
fb
0a
e8
0a
f1
fc
f7
fa
1a
09
02
f0
ef
04
fb
05
18
10
11
07
07
17
1a
0a
02
f6
f7
01
0a
06
0c
12
f5
0b
fc
08
00
05
0a
f9
10
fc
f8
05
03
0c
14
0a
f4
0c
f5
0d
01
f2
12
1a
e4
0d
f0
22
13
ed
02
df
13
03
14
e7
1b
03
05
25
06
02
fc
ec
f7
fd
ec
0b
10
0c
fc
06
ec
0e
0c
ef
19
1a
f4
e8
01
ec
f5
ff
f8
eb
f5
fc
30
ef
18
f2
ef
04
e9
0f
0d
e9
f2
03
05
e7
fb
f3
cf
f3
ec
e0
e0
ff
eb
f3
f3
f8
1c
07
11
1b
fa
ec
fc
df
01
03
04
06
12
03
26
14
ee
fe
fe
ff
ef
0a
08
d6
b4
05
1a
e3
f5
f1
ff
fc
0c
fd
00
0b
f9
ea
ec
03
f8
fe
f4
12
21
08
ff
e3
07
23
ea
f6
08
0d
1a
1f
ed
00
1c
07
06
ff
fe
01
fa
11
02
04
fd
f9
f9
cd
09
df
f5
e8
de
1c
14
e3
ff
01
f7
09
ec
08
f9
f5
eb
47
f3
ff
08
d0
26
03
e9
ea
d3
fe
08
e3
fe
03
fa
0c
fb
01
ed
04
f6
fa
0c
07
06
04
01
f6
29
0a
10
24
1a
04
00
1c
30
19
fa
f0
f4
06
03
04
05
fa
21
15
fe
22
d9
dd
e1
e5
10
10
f9
e3
f5
fa
0c
fe
09
fb
de
ef
05
ee
39
10
f1
fe
04
0e
fc
1d
f8
04
fd
ee
f1
ef
fa
05
0a
01
ff
f8
ee
f2
08
f7
14
e0
eb
01
14
09
f9
ef
18
e1
f9
fb
ee
ff
03
08
fa
fc
fc
e3
e0
f8
10
16
ff
f0
0a
14
02
05
1f
32
06
0b
03
05
02
05
fb
0d
11
fc
fb
fa
f4
22
f9
04
16
06
ec
eb
e6
fc
0b
f3
fe
fc
0d
fc
ee
f5
ef
05
e1
fa
e2
ea
1f
0f
17
12
03
0c
0d
01
18
2f
11
07
e3
f4
00
fa
0a
06
06
11
14
f9
08
fa
17
ee
f8
ef
1a
11
ec
e4
ef
f8
e2
d8
f1
f3
ff
08
e0
03
0a
08
f7
f6
0c
f7
e5
fc
f4
d9
f6
01
0d
c9
f1
02
e2
d4
ea
05
dc
09
fd
fb
f0
f8
f7
db
1a
00
03
f4
2e
08
e5
f3
0c
e7
08
03
04
f5
04
f7
ff
14
fe
ef
eb
e4
f4
f4
da
0a
1d
fa
e1
ff
fb
19
09
00
20
0f
09
20
11
23
1b
00
0b
fa
f8
08
37
f7
09
f0
dc
15
fc
16
f5
f7
e1
f7
f5
12
02
f9
e0
f9
fa
04
f6
f0
0e
07
fc
f8
f1
2c
ea
03
ff
ee
1a
22
0d
f1
ee
fa
ff
11
fe
ec
f6
f0
f7
ea
34
0f
f9
10
d5
cc
f6
00
13
16
17
fb
ee
0b
0b
f8
02
e5
ff
e9
02
00
eb
f3
e8
fe
0d
ce
eb
cd
f9
06
13
f6
f8
fe
fb
01
09
fb
ff
f7
02
04
ef
f8
22
07
fa
e8
11
15
ea
12
e9
da
ff
01
e1
e5
f2
e9
f0
eb
f8
e7
e9
fa
ef
de
ff
e0
da
14
f2
d9
01
ee
03
f1
00
f2
ee
ff
e6
ff
fb
ff
fb
01
fa
00
00
00
00
00
00
00
00
00
00
00
00
00
00
00
00
00
00
00
00
00
00
00
00
00
00
00
00
00
00
00
00
00
00
00
00
00
00
00
00
00
00
00
00
00
00
00
00
00
00
00
00
00
00
00
00
00
00
00
00
00
00
00
00
00
00
00
00
00
00
00
00
00
00
00
00
00
00
00
00
00
00
00
00
00
00
00
00
00
00
00
00
00
00
00
00
00
00
00
00
00
00
00
00
00
00
00
00
00
00
00
00
00
00
00
00
00
00
00
00
00
00
00
00
00
00
00
00
00
00
00
00
00
00
00
00
00
00
00
00
00
00
00
00
00
00
00
00
00
00
00
00
00
00
00
00
00
00
00
00
00
00
00
00
00
00
00
00
00
00
00
00
00
00
00
00
00
00
00
00
00
00
00
00
00
00
00
00
00
00
00
00
00
00
00
00
00
00
00
00
00
00
00
00
00
00
00
00
00
00
00
00
00
00
00
00
00
00
00
00
00
00
00
00
00
00
00
00
00
00
00
00
00
00
00
00
00
00
00
00
00
00
00
00
00
00
00
00
00
00
00
00
00
00
00
00
00
00
00
00
00
00
00
00
00
00
00
00
00
00
00
00
00
00
00
00
00
00
00
00
00
00
00
00
00
00
00
00
00
00
00
00
00
00
00
00
00
00
00
00
00
00
00
00
00
00
00
00
00
00
00
00
00
00
00
00
00
00
00
00
00
00
00
00
00
00
00
00
00
00
00
00
00
00
00
00
00
00
00
00
00
00
00
00
00
00
00
00
00
00
00
00
00
00
00
00
00
00
00
00
00
00
00
00
00
00
00
00
00
00
00
00
00
00
00
00
00
00
00
00
00
00
00
00
00
00
00
00
00
00
00
00
00
00
00
00
00
00
00
00
00
00
00
00
00
00
00
00
00
00
00
00
00
00
00
00
00
00
00
00
00
00
00
00
00
00
00
00
00
00
00
00
00
00
00
00
00
00
00
00
00
00
00
00
00
00
00
00
00
00
00
00
00
00
00
00
00
00
00
00
00
00
00
00
00
00
00
00
00
00
00
00
00
00
00
00
00
00
00
00
00
00
00
00
00
00
00
00
00
00
00
00
00
00
00
00
00
00
00
00
00
00
00
00
00
00
00
00
00
00
00
00
00
00
00
00
00
00
00
00
00
00
00
00
00
00
00
00
00
00
00
00
00
00
00
00
00
00
00
00
00
00
00
00
00
00
00
00
00
00
00
00
00
00
00
00
00
00
00
00
00
00
00
00
00
00
00
00
00
00
00
00
00
00
00
00
00
00
00
00
00
00
00
00
00
00
00
00
00
00
00
00
00
00
00
00
00
00
00
00
00
00
00
00
00
00
00
00
00
00
00
00
00
00
00
00
00
00
00
00
00
00
00
00
00
00
00
00
00
00
00
00
00
00
00
00
00
00
00
00
00
00
00
00
00
00
00
00
00
00
00
00
00
00
00
00
00
00
00
00
00
00
00
00
00
00
00
00
00
00
00
00
00
00
00
00
00
00
00
00
00
00
00
00
00
00
00
00
00
00
00
00
00
00
00
00
00
00
00
00
00
00
00
00
00
00
00
00
00
00
00
00
00
00
00
00
00
00
00
00
00
00
00
00
00
00
00
00
00
00
00
00
00
00
00
00
00
00
00
00
00
00
00
00
00
00
00
00
00
00
00
00
00
00
00
00
00
00
00
00
00
00
00
00
00
00
00
00
00
00
00
00
00
00
00
00
00
00
00
00
00
00
00
00
00
00
00
00
00
00
00
00
00
00
00
00
00
00
00
00
00
00
00
00
00
00
00
00
00
00
00
00
00
00
00
00
00
00
00
00
00
00
00
00
00
00
00
00
00
00
00
00
00
00
00
00
00
00
00
00
00
00
00
00
00
00
00
00
00
00
00
00
00
00
00
00
00
00
00
00
00
00
00
00
00
00
00
00
00
00
00
00
00
00
00
00
00
00
00
00
00
00
00
00
00
00
00
00
00
00
00
00
00
00
00
00
00
00
00
00
00
00
00
00
00
00
00
00
00
00
00
00
00
00
00
00
00
00
00
00
00
00
00
00
00
00
00
00
00
00
00
00
00
00
00
00
00
00
00
00
00
00
00
00
00
00
00
00
00
00
00
00
00
00
00
00
00
00
00
00
00
00
00
00
00
00
00
00
00
00
00
00
00
00
00
00
00
00
00
00
00
00
00
00
00
00
00
00
00
00
00
00
00
00
00
00
00
00
00
00
00
00
00
00
00
00
00
00
00
00
00
00
00
00
00
00
00
00
00
00
00
00
00
00
00
00
00
00
00
00
00
00
00
00
00
00
00
00
00
00
00
00
00
00
00
00
00
00
00
00
00
00
00
00
00
00
00
00
00
00
00
00
00
00
00
00
00
00
00
00
00
00
00
00
00
00
00
00
00
00
00
00
00
00
00
00
00
00
00
00
00
00
00
00
00
00
00
00
00
00
00
00
00
00
00
00
00
00
00
00
00
00
00
00
00
00
00
00
00
00
00
00
00
00
00
00
00
00
00
00
00
00
00
00
00
00
00
00
00
00
00
00
00
00
00
00
00
00
00
00
00
00
00
00
00
00
00
00
00
00
00
00
00
00
00
00
00
00
00
00
00
00
00
00
00
00
00
00
00
00
00
00
00
00
00
00
00
00
00
00
00
00
00
00
00
00
00
00
00
00
00
00
00
00
00
00
00
00
00
00
00
00
00
00
00
00
00
00
00
00
00
00
00
00
00
00
00
00
00
00
00
00
00
00
00
00
00
00
00
00
00
00
00
00
00
00
00
00
00
00
00
00
00
00
00
00
00
00
00
00
00
00
00
00
00
00
00
00
00
00
00
00
00
00
00
00
00
00
00
00
00
00
00
00
00
00
00
00
00
00
00
00
00
00
00
00
00
00
00
00
00
00
00
00
00
00
00
00
00
00
00
00
00
00
00
00
00
00
00
00
00
00
00
00
00
00
00
00
00
00
00
00
00
00
00
00
00
00
00
00
00
00
00
00
00
00
00
00
00
00
00
00
00
00
00
00
00
00
00
00
00
00
00
00
00
00
00
00
00
00
00
00
00
00
00
00
00
00
00
00
00
00
00
00
00
00
00
00
00
00
00
00
00
00
00
00
00
00
00
00
00
00
00
00
00
00
00
00
00
00
00
00
00
00
00
00
00
00
00
00
00
00
00
00
00
00
00
00
00
00
00
00
00
00
00
00
00
00
00
00
00
00
00
00
00
00
00
00
00
00
00
00
00
00
00
00
00
00
00
00
00
00
00
00
00
00
00
00
00
00
00
00
e1
0d
fa
f1
2d
f1
e7
1c
08
08
0f
26
38
0a
e9
f4
ef
00
fd
fd
04
00
fd
26
d7
dd
fa
1f
f2
fc
0d
30
10
de
0a
0b
35
1c
1f
11
f9
f8
04
00
02
0b
07
d3
d7
cb
ea
d6
e5
29
10
35
f9
c7
f4
0d
0a
14
08
f8
f8
fb
fa
fa
fa
fb
03
0a
df
40
0d
f3
e7
01
1e
e6
13
20
01
0b
05
f2
fa
f0
fb
00
fe
08
fa
e1
de
fd
46
ea
e3
18
08
50
0a
04
15
11
f7
03
dc
03
fb
fb
ff
00
07
f2
16
08
fb
f7
14
eb
f9
2c
05
ef
e3
e3
fc
0d
f5
08
fb
fc
07
fc
02
fe
f8
23
31
1f
df
cd
fe
2f
fc
f9
1c
14
f8
ff
e5
ec
06
03
f9
00
fa
02
fd
fb
15
f8
0a
dd
f2
f6
f9
1c
e5
ef
08
02
19
32
09
ed
e7
f8
fb
fc
ff
fe
ce
f6
08
08
cd
13
fe
f5
1c
06
f1
0d
fa
29
18
fa
09
f9
f9
fe
00
fe
ff
01
24
d7
dc
49
ec
d2
fb
01
15
17
f9
09
fd
23
07
ea
f0
f0
fc
fa
fb
f3
fe
fb
c7
ee
fb
16
f9
21
1d
00
11
0e
04
f6
00
17
16
f6
04
05
04
06
08
e6
f9
05
ec
13
0d
01
13
0c
e9
1c
04
fc
26
00
07
f1
f3
f8
fe
fa
fc
f6
f7
22
f6
d6
23
05
ef
d9
fc
12
d9
d6
d9
f8
f0
03
05
fe
f3
f1
f9
f2
f2
03
9c
f1
18
01
dd
02
d8
34
fd
d9
15
14
2f
25
17
f3
f8
f9
fd
ff
00
fe
ca
00
1c
f5
e1
14
0f
eb
1a
1c
fc
11
09
fe
f8
d3
e2
fc
fe
fc
fd
fd
00
08
11
ec
ea
29
2c
08
03
df
e9
e1
ea
15
21
e6
11
ff
f9
f8
fc
fc
fd
f3
f1
c9
cb
f9
01
e1
dd
10
0c
06
1c
f6
05
f0
09
fe
02
fe
fd
09
03
ff
03
02
28
e6
ec
05
02
f0
14
24
03
0c
e6
f8
03
e8
15
0a
ff
fe
03
01
ff
f7
e0
e2
03
17
e9
d1
14
f7
f8
0a
ff
04
14
da
f7
08
f8
f9
02
00
f9
02
08
f6
f0
04
e5
0d
d6
1e
f4
13
0d
f2
0a
f2
ee
f2
04
03
ef
fd
f9
f5
fa
fb
f4
22
18
20
ec
d9
fe
10
09
27
13
2d
ed
eb
e1
f6
f7
f7
fc
fe
00
00
02
f9
f1
f0
0f
f6
c3
e8
15
16
2e
10
20
fc
03
07
f9
ef
fc
f5
fa
fc
fc
07
db
04
03
e9
18
16
fd
ed
e3
1c
0b
0b
0e
fc
04
fe
f5
fc
f7
fe
04
ff
ff
d6
08
0a
13
fa
fc
ef
05
21
19
fb
f4
05
f4
ed
f6
f3
00
fb
fd
ff
00
f6
f6
f5
26
03
f5
0d
fe
0e
18
0a
f8
22
2d
10
ee
f5
f1
06
ef
ff
ff
fe
03
f4
11
03
f2
01
f5
e9
f5
10
11
06
e4
15
f3
da
f1
06
f5
ff
0a
ff
00
fd
06
f8
f9
1c
f6
18
f1
eb
24
0b
03
f1
01
ef
0b
03
fe
fa
f2
02
00
00
ff
f3
da
d4
02
28
b9
ea
17
2f
f6
e8
0a
fa
e9
25
14
f2
ff
ff
02
fd
fe
ff
13
f5
f7
f0
0d
19
21
f4
08
17
12
ef
11
04
f5
18
06
01
f4
02
02
04
fb
fd
e4
b4
04
1f
db
e5
00
11
16
f5
12
fe
fc
1b
20
00
ea
fa
08
01
01
00
e5
f8
e6
09
26
dc
07
f5
01
f7
0b
14
09
2a
fe
06
0a
fc
fe
07
fd
fe
fa
ef
10
f2
d7
2c
00
c8
0e
f4
f8
27
17
0f
f4
d4
02
07
05
ff
03
03
ff
f4
01
0b
ea
f8
17
f4
15
f0
ea
03
09
0e
04
fb
15
07
f4
e4
f0
ef
ee
f3
ee
e9
f9
e1
fd
f9
f0
d3
fe
28
0b
f6
f1
e6
0f
0b
09
0c
fc
fa
08
01
fe
ff
b4
1c
f3
07
28
0a
e5
1c
09
ff
01
f3
0e
02
f1
fe
fb
f3
fd
fc
fe
fd
f7
fe
28
bb
f5
1b
fe
e5
0d
13
14
0f
f1
02
f4
e7
f6
01
02
f7
00
03
fe
06
e6
1f
18
ec
25
02
d6
06
08
0b
06
06
27
07
04
f7
05
f8
ff
fd
01
00
08
bd
e4
f4
08
0e
10
09
f8
f1
eb
0d
09
fc
07
f6
fb
f9
f5
f9
fa
f9
f9
ec
ef
f5
e1
f9
06
08
f6
03
15
fd
01
12
d8
02
16
fc
03
fa
05
06
fe
02
fc
ff
1b
06
d3
28
03
0b
fd
fb
fd
f9
12
0c
fe
18
e7
01
f4
f4
fc
f8
fb
fd
0f
fb
e7
ee
25
06
f2
08
27
e7
fd
fa
0c
ff
f8
f8
e0
0b
01
ff
01
03
fe
df
fd
08
f8
e8
f9
06
f4
10
22
20
f2
ea
21
f0
e9
ed
f5
f8
ff
fe
00
00
02
de
fc
f7
15
fa
ee
04
df
27
35
14
18
f9
f9
ff
00
08
f4
00
00
ff
01
09
11
00
e1
0e
11
f4
f9
00
08
f6
02
0e
fd
ed
f0
02
f5
f2
ff
fe
fe
ff
00
11
08
d4
fc
2a
0c
df
1d
d4
dc
0d
fb
13
f6
ec
fe
f5
f8
02
f9
fc
f5
f7
fd
08
f1
d8
1f
0a
0b
19
e1
05
e8
e5
01
f2
0d
f0
08
01
fe
04
00
f4
fb
0d
f9
d7
1b
ff
00
fc
e2
fa
f7
eb
03
f8
ec
ef
03
f1
fe
02
fc
fd
ed
c1
fa
08
f6
ee
16
06
f7
f4
eb
ea
03
ef
ec
02
fb
ff
fb
05
02
fd
fe
ed
c7
c3
f9
16
cf
03
29
ff
08
20
04
ed
eb
f6
e9
f4
fb
07
05
10
0e
0b
fc
f6
0e
fd
25
11
fa
e4
0e
13
02
08
2d
28
f9
04
fd
e5
fb
00
fc
fc
fe
f2
0f
ff
21
f2
fd
f9
f5
fc
20
30
25
1e
0b
22
f5
ef
f9
05
ea
01
00
01
08
dd
06
0d
0c
fc
fc
fe
0b
14
13
02
f9
0b
1b
10
07
ed
e9
03
01
fe
ff
f7
e5
19
09
07
39
20
fc
1f
32
09
19
03
f8
27
fb
f6
03
f8
09
08
03
09
00
e5
fe
0e
f8
11
f1
ec
13
d8
eb
07
15
34
10
f0
e9
ed
ee
f0
f2
ee
f4
f4
ce
e7
ea
dc
1d
e6
ff
fc
04
06
24
fb
0b
1d
f7
27
09
ee
04
01
f9
fa
fe
f6
f1
23
0a
e3
0d
0f
07
1b
02
f9
d1
14
17
03
fd
e3
f2
fa
f6
f7
f7
f3
07
ff
f2
fa
0b
e1
e0
07
0f
f8
1c
f6
ea
f2
f9
fc
09
f3
f3
05
fd
02
05
22
c4
ca
15
fe
d0
0f
17
09
15
fd
0c
0d
ef
13
29
0f
02
f8
02
ff
fd
ff
f0
06
f2
e8
1d
2b
07
eb
14
18
ff
1d
15
06
01
05
ed
f4
fa
ff
fe
00
00
0f
d9
fd
f2
d0
cb
ee
28
03
03
18
11
05
ec
00
0a
0b
fd
05
05
02
02
fe
ef
e9
0f
04
cf
12
0f
0c
09
02
eb
1f
26
00
08
ef
ec
f4
ef
f7
fb
fd
01
ec
f6
14
e4
dd
cc
d9
0c
08
f8
f9
ed
e8
e3
f1
01
f1
f8
f8
f9
f1
f6
f8
fc
f5
fc
05
3d
19
eb
06
09
e7
22
25
2c
2d
fa
02
de
0b
fd
ff
02
00
fb
f5
1d
08
e7
e2
df
03
d7
f8
02
ef
08
01
e0
d9
ee
fb
fa
fc
f8
fb
fc
f0
10
05
ec
16
0c
d7
0d
f9
05
fb
df
d7
e2
f8
f3
e6
eb
fa
fa
f7
ff
f7
08
f7
e0
f0
f1
c8
f7
3c
08
eb
0a
08
e4
16
d0
10
f4
ed
df
df
fb
07
0a
fd
0c
1e
11
16
16
c5
00
d7
f4
e9
0b
16
08
21
01
da
d8
f3
0b
ef
03
ee
fe
07
02
e0
20
f1
d8
05
dc
fa
08
0e
d1
e0
e1
0e
d4
0c
f5
f1
fa
09
ee
fa
f6
00
03
1d
11
d2
07
e3
07
f5
00
ec
ea
03
0d
f5
0b
f4
03
f3
0d
fa
fe
26
f7
07
17
ea
06
0a
fb
f9
06
0d
26
10
f8
f8
26
e5
e2
ec
00
f5
fb
f7
f6
dc
f8
13
22
16
e4
ca
ef
18
05
f8
0f
e9
15
12
05
02
fe
0a
04
fb
f2
15
e1
0d
fe
01
18
11
eb
03
0a
17
0a
01
f6
fe
d7
f3
de
f9
ff
01
18
f3
dc
f9
0b
f3
e5
ee
05
12
1b
08
dc
f8
e4
ec
dd
ee
fc
d3
00
ee
f3
11
ff
23
25
fc
fe
db
dc
15
f6
19
02
e6
05
16
16
0c
07
ec
e9
ee
f2
06
fd
0a
e9
e7
0a
0c
d0
eb
0c
ef
f2
00
e7
f9
1b
f0
13
08
f2
e6
d4
f7
f8
f2
01
f6
0d
f4
f7
de
f4
eb
17
fa
e7
f9
05
01
f8
f6
e7
ec
0c
f5
08
02
03
03
1c
f2
2c
20
ec
d2
d6
07
f8
0d
0d
08
f8
07
0e
0e
13
ea
fb
e5
01
ff
fd
09
1b
02
14
d2
0b
02
f1
f7
07
3d
10
0d
f3
eb
12
f3
d7
f2
fe
0e
1c
01
0a
da
ea
0f
09
fc
cd
0a
0c
f0
f3
e6
fd
f3
df
04
ff
f4
ff
02
f6
03
fc
0e
01
fd
09
ff
04
fc
08
00
f9
09
dc
ff
e4
1e
ec
e6
02
00
f4
fa
fb
fb
05
2d
f3
11
e2
c4
f7
06
00
1b
ed
00
06
fb
1b
08
da
e5
f2
f3
09
02
ff
f0
dc
20
0a
e2
ce
13
06
04
02
09
08
fc
ec
fe
fd
dd
e8
00
e8
13
f6
fb
03
1d
e9
eb
f5
29
0b
ea
1f
12
05
18
0f
28
25
fe
06
f4
ef
04
01
0f
f1
22
10
00
18
07
3b
1c
0c
00
01
10
e9
f6
07
0c
06
f2
f4
fa
ee
08
fc
fc
ff
f7
0d
03
07
ef
e1
ff
fc
f7
e0
04
17
02
22
fc
fd
00
03
06
09
fe
03
0f
06
fe
36
e0
e6
fb
e2
14
05
09
ea
f4
e6
0f
08
0f
ff
fe
08
0c
00
f8
fb
fc
e3
0d
f5
d9
07
06
0b
eb
fe
fe
05
f9
f1
0b
f2
e8
fa
fd
10
f0
01
01
f4
25
11
01
fa
f6
0b
e7
ff
02
04
f3
f6
03
02
f7
ff
00
09
03
fd
fa
f2
e9
f4
eb
f9
ec
39
f9
de
f8
f8
d7
e0
e4
de
24
06
fa
04
08
1c
f8
fd
0a
e4
fc
f4
03
ed
0b
08
03
f5
fe
12
e2
11
28
0b
10
f8
0b
f5
0a
ef
ff
08
0b
f2
ed
19
ef
22
0f
de
03
ce
15
f7
06
0e
07
df
e8
f4
fa
07
ee
0a
28
11
0d
35
dc
e3
ef
dc
e3
f4
0e
12
06
f8
f6
f0
ce
fa
f6
05
f8
15
03
f0
f3
11
ee
f7
42
1b
09
f1
f5
0b
f6
19
fc
0b
19
ff
ec
f5
ef
08
fa
f3
fe
29
00
f1
d6
c1
ef
01
e6
03
21
0f
07
14
f9
f8
f5
e1
db
f3
15
05
11
e8
2a
fb
fb
d5
f2
1f
0b
14
e9
07
e7
02
cb
02
08
e9
00
e7
00
0f
03
f3
14
eb
ff
11
f9
06
00
0a
1a
f7
e7
da
fc
28
41
fb
06
eb
f4
f0
fc
f3
03
ff
ff
1d
ee
07
2e
f2
03
1f
ec
03
0b
f9
1e
23
09
f3
e2
fd
fe
09
11
07
e6
23
dd
ea
db
dc
e0
04
ed
0a
f2
11
2d
10
22
ee
f0
e7
f2
ff
06
fd
fb
2f
e6
fc
07
07
e9
0d
e1
04
eb
ff
04
ef
0e
0f
04
05
f5
fb
f6
f3
ed
05
c2
d9
24
24
eb
bc
f6
05
01
0c
ff
f7
0c
fa
15
e2
06
eb
fb
ef
ff
fa
f9
0e
df
dd
12
0c
fb
f5
f5
f8
f8
e1
e6
e2
0a
1d
fe
ee
09
f5
00
00
fe
00
fb
f8
f8
ff
11
16
fd
0c
00
0e
f8
fd
fc
fc
fa
fe
f5
06
04
05
02
03
04
00
d0
e7
0f
09
00
11
03
e0
fe
ef
fe
3c
00
fe
fa
f1
e8
e9
01
f9
01
fe
01
f3
f4
19
07
31
10
e0
02
07
08
f5
e7
ff
ed
27
ee
f6
f4
01
ff
fd
ff
07
f4
1b
10
0c
07
00
01
00
12
0a
04
fb
ed
01
01
00
fb
00
0c
01
f9
fa
27
eb
16
ff
da
fc
e2
0e
05
f8
df
00
0a
05
0c
0f
ef
e9
f0
06
fd
14
f7
0f
05
04
1f
ef
1a
2a
ed
fb
1f
03
fa
fc
ec
1c
1e
fd
ef
fa
fd
03
08
fc
03
0e
01
f7
d3
fd
09
01
db
06
fa
dc
f3
00
02
1d
04
fb
ef
fe
09
02
f8
fd
06
eb
fc
02
27
15
f4
03
09
0d
fc
17
09
19
36
f7
f5
f5
fe
09
09
fb
14
fe
0a
f8
0f
01
13
02
ef
17
1a
f8
0e
27
f5
ff
07
e2
ee
f2
05
f7
ff
1a
e9
03
0e
fb
29
29
ff
0e
06
17
16
11
f5
0e
12
e9
ef
ea
ff
07
f8
0e
1e
eb
e9
f3
15
1c
0a
0f
0d
11
0c
1f
fb
0c
08
f5
f2
f5
f7
fc
fe
f9
ff
f3
2c
fd
e6
dc
08
d2
e2
05
00
0b
0f
08
1b
0a
0f
ea
f8
f7
f5
e9
0a
ea
09
0b
e3
e8
05
f9
1d
f5
18
08
ea
f1
f5
0f
0b
fd
f4
fb
f8
f8
fd
ff
0f
13
f4
df
ea
0e
e8
ff
09
ea
eb
ed
ec
f5
dd
1b
12
ee
fb
0c
07
10
f1
f5
0f
df
ed
19
fb
01
ea
02
f5
01
1c
f9
db
cb
ed
18
f4
14
01
0c
fc
00
f3
0d
b8
0b
13
13
07
e9
e8
ef
c1
01
e9
ee
f0
16
1c
da
02
fc
10
f8
06
f5
08
01
eb
19
0e
18
04
f9
fa
14
04
cf
f2
e0
ec
20
05
0d
0c
09
05
fc
f9
f3
15
f7
03
03
08
fd
10
10
ed
22
0e
f2
09
e9
04
e8
05
f1
0c
05
09
f8
24
e6
1d
1d
10
13
ec
f6
f7
f3
2b
13
07
f1
e7
06
06
fe
06
02
0f
0e
fa
fa
1a
d8
ef
d0
03
13
02
cc
10
ea
1c
21
ff
19
1b
f5
f8
ec
02
f5
04
f4
f3
42
f2
f7
e8
be
ef
f8
e8
11
f7
29
08
11
01
d1
cf
db
ed
01
01
07
fa
15
f6
f3
07
07
ed
e6
0a
ed
e4
f7
e6
f4
f2
e9
02
ea
ee
f1
fb
f6
f6
f4
f1
19
16
e8
f2
0e
06
f1
18
0e
fe
10
f5
e5
f2
ec
ec
f4
fb
0a
10
15
f8
0f
27
ff
ff
05
03
ea
e3
ed
21
1b
f8
f2
01
00
f4
e1
f2
0b
0d
f0
11
ed
06
f8
0d
20
ed
e8
b9
da
ea
f4
11
e5
f8
0a
24
19
15
04
f8
03
fc
02
fc
10
08
09
05
09
e1
11
20
f1
12
eb
b1
f9
ea
e9
ff
03
f5
ec
f6
f5
e8
03
04
f1
1f
f2
f2
fc
ed
01
e6
e5
10
ec
f1
15
07
18
06
fd
fd
f1
f8
ff
01
f9
f7
f4
f1
0c
eb
d4
11
00
ed
ff
33
14
1c
fe
07
ed
f9
07
fb
ff
02
fb
24
e0
f4
e9
25
05
fc
2d
32
fa
f0
0a
ff
0f
1f
0e
fd
f0
01
fb
fe
00
10
11
c8
e3
e3
e4
13
e5
2f
39
2c
02
d2
f6
f0
e2
13
ed
15
fa
ef
ff
08
07
12
ff
13
f5
3f
1f
d4
ff
f2
f8
e9
34
29
03
21
f6
e6
07
12
05
f3
00
15
0e
ec
ee
e8
28
08
fa
25
00
23
03
02
0a
04
fd
f0
e7
f6
0b
01
f8
02
01
e0
13
ff
f7
e0
17
15
eb
20
0a
19
e7
ea
02
09
ee
f7
f7
08
0b
f8
f7
08
16
35
1f
21
f2
d0
0e
18
ff
16
18
15
f8
08
e6
e4
0c
1d
19
fd
ee
05
06
04
2a
fe
18
00
f4
f3
fd
0f
0b
e7
0b
fa
f5
24
26
01
f0
e2
f9
f2
fd
ff
fc
f6
f7
08
ef
fb
f5
fe
05
fb
ec
01
ef
1c
2d
05
07
f4
f4
f6
02
ff
00
f3
fd
f0
db
33
ee
f1
00
ef
0a
05
02
f1
fa
0a
12
f4
f6
f2
f2
f9
fa
f9
09
f7
dd
e1
01
26
e7
2b
27
ea
18
0c
fa
f7
0d
fd
04
00
f3
04
03
00
08
e1
dd
ff
f2
10
01
0b
eb
fb
e1
1e
07
f8
0c
00
0b
fa
f7
f2
fe
fb
fe
f5
f5
26
01
e8
25
0c
fb
fe
08
24
cb
fa
e5
08
f9
09
06
0f
fa
fe
04
09
04
0f
de
fa
0c
03
e2
fe
e5
26
0a
e4
0e
fc
28
15
07
ee
f3
e6
f4
f5
ff
09
eb
23
fe
fa
cf
15
21
ec
ec
f8
f5
09
29
0d
0c
f0
e4
04
13
0e
fd
fd
02
f3
04
f7
f8
29
46
ff
e9
d5
da
da
e0
08
fc
f9
0f
15
0a
fd
f9
fb
09
f6
00
c2
d4
f9
f1
fa
01
0f
24
f6
16
01
f0
ef
ff
0c
f4
01
fe
ff
11
07
00
1b
2c
e6
de
f6
20
cd
0c
1c
18
fe
0b
f4
08
ff
0f
fb
02
f8
e6
00
05
05
f1
eb
10
09
df
d3
f9
f0
05
03
0c
fb
08
e7
04
05
ee
f6
f8
f7
ed
fd
07
e5
e0
0d
ea
14
d0
f4
dc
08
04
e5
10
ee
f5
e8
09
fa
f3
eb
f4
00
01
f5
07
1c
05
08
e6
03
0d
07
0e
0d
1e
1e
02
f8
de
e7
fd
09
0d
07
f8
08
0a
e1
0d
f2
f4
f5
f0
ef
2b
17
16
10
16
06
14
01
ed
e7
01
23
07
fe
fc
15
07
f2
f5
e7
04
fe
fd
e8
e4
ff
10
25
15
f7
0d
01
01
10
06
f7
f3
00
fc
e8
1b
e5
13
f9
ee
f1
12
03
0f
09
fb
ed
04
e8
ea
03
fc
21
15
00
02
f6
19
0b
05
14
04
02
f7
1a
0a
0f
09
1f
2a
17
ff
fd
f8
03
25
11
f6
fa
14
0e
07
ff
04
f4
09
f9
e9
1b
18
fc
f4
0f
f9
e4
fe
01
09
ef
f4
f9
07
fd
08
08
f5
18
fa
25
00
08
15
06
05
10
fa
08
f8
02
fa
01
f3
f6
f3
04
fa
e8
ea
eb
dd
30
e9
fc
2e
32
ff
0c
f3
e5
e2
1b
ec
ee
f2
02
03
fc
ff
0a
17
0a
fd
0f
21
0e
f5
e9
ea
15
04
e7
16
06
ed
fa
04
03
0b
f4
fb
03
16
fc
e8
c5
fe
00
e6
fb
14
1d
09
e8
16
ee
ff
19
0d
f3
f5
ef
fc
15
01
f0
e8
d9
e6
e5
0a
d3
27
0f
03
01
00
0c
f7
32
0c
03
eb
ff
07
12
0b
fe
fa
f0
05
04
de
1d
03
c5
04
0f
eb
16
16
08
09
da
ef
fa
04
f1
f6
f7
f9
0b
2c
1c
fe
ec
14
f7
ea
ef
e6
01
ff
07
0c
fb
1c
06
f8
01
fa
f4
f7
07
04
f6
eb
f2
fc
fb
e6
0a
28
2a
00
f5
0e
d5
10
fc
05
f0
f6
f1
fb
0a
02
03
9c
ef
f0
0c
2b
f7
d7
16
e6
ff
f6
f0
f6
01
02
02
0d
0a
fe
f9
04
08
ff
f0
0d
bf
e5
08
1e
f7
15
02
12
13
1e
e5
f3
ef
ff
fd
03
f3
f4
fb
fb
00
e6
19
02
f3
08
0d
de
00
fc
fb
16
1e
28
07
11
e6
fe
10
11
ff
ee
f3
0d
bf
ea
fb
15
18
0b
fb
f9
de
e1
f5
fe
f8
f9
fa
06
02
fc
fe
00
fe
fc
f1
db
00
eb
f7
05
05
e6
f5
00
f1
06
0f
d2
f1
15
0b
fb
fa
fb
f2
fc
00
f6
f6
f7
0c
ed
23
e8
f5
03
f9
13
f9
16
0a
14
fb
eb
d1
0a
07
fc
ed
00
1a
15
12
dc
fe
21
10
fd
fa
1d
04
ff
ef
1c
07
19
f1
f8
08
23
04
f4
00
0a
f2
15
fb
0a
ec
fc
19
ec
0b
26
1a
07
fa
19
01
f7
f3
f8
23
09
f5
fe
fc
e3
f4
00
f5
16
fe
f5
f1
d7
0e
2e
0f
03
f7
e7
f2
f1
ea
00
f7
01
fa
02
05
29
05
07
19
05
ff
07
ee
fd
e6
01
02
0b
00
ed
05
02
0a
06
f5
ff
fe
01
11
1b
e7
04
20
07
db
ee
e3
cf
01
fb
08
ff
f6
ff
f2
f7
07
e6
ee
f9
fe
14
0b
01
e1
16
f2
09
1e
e4
f4
f7
fc
e8
f8
0c
01
fa
fa
0a
fd
01
03
ea
17
0e
ed
29
f0
0d
ee
db
fb
f9
f8
0c
07
f1
fe
f2
ee
f4
ef
eb
05
f6
ce
fa
02
0d
f4
0f
f9
ff
d9
d3
d9
fa
00
ed
f1
06
f3
fb
00
08
03
fb
fb
d7
c2
f1
0a
ee
ff
29
1d
07
0b
02
de
02
f5
fd
f2
ec
fa
10
06
12
07
0a
fe
eb
f7
0b
f3
d1
e2
00
f4
03
07
29
07
12
0f
fa
fd
04
09
fa
f3
f3
ec
18
0a
05
ee
ec
05
29
03
20
18
2e
16
10
0b
dc
e4
01
17
17
fd
f2
02
09
d4
e8
ff
09
e5
02
02
e8
04
f4
14
f3
1e
0f
fa
04
f9
0b
09
0c
f9
f1
fd
f6
12
e3
ff
29
2b
f7
15
2d
fc
2d
05
10
16
09
eb
0b
0d
1e
01
ec
ff
05
db
ef
00
fb
07
e7
d0
f7
cd
c1
fe
04
4a
19
fa
01
fa
fc
00
01
f5
f5
fc
ec
d4
eb
e3
27
d9
02
ed
f6
06
21
ff
05
1a
f9
02
0e
fc
e9
fa
02
00
fa
01
fa
23
10
fb
f8
02
f8
18
01
e7
da
11
1e
00
0f
02
f7
06
04
01
03
00
f6
fe
07
f7
ff
ee
15
1d
f5
fa
14
f3
f1
09
e4
f1
ed
ff
fb
ff
fc
03
0a
30
c3
e2
09
f3
e3
f8
24
2e
03
ff
fa
e6
e4
fa
f5
dd
f0
fb
ff
0d
0a
08
01
ec
e8
eb
18
24
f5
d5
13
07
00
25
1b
07
0f
e8
fb
03
fe
f5
f7
fb
00
1d
e9
02
fc
f2
e5
0d
2e
0c
22
13
fe
f9
f9
f1
f8
00
fd
fb
f6
04
09
05
04
dc
01
1d
e1
0f
22
fc
f6
f8
d3
09
27
0e
02
01
05
f0
10
00
fd
f7
fe
f1
fe
0a
e5
e4
20
10
1f
0d
09
02
fb
f7
e8
fc
08
03
02
0c
08
fc
03
09
fd
fb
f0
0e
2d
02
dc
f6
02
d4
12
30
27
34
16
f6
f0
f4
24
11
01
fe
03
fc
38
04
f8
e7
ee
fe
e8
02
06
f2
06
17
e8
f8
fe
05
01
05
03
ff
fe
fb
fa
e3
f6
b9
18
0e
03
ed
0c
0a
08
29
12
14
1e
06
04
0e
10
08
07
01
00
1e
e3
c7
dd
4f
0d
09
16
12
16
11
0d
1c
1a
21
fb
fc
09
ef
04
02
14
0b
fa
e5
ec
b2
f1
01
eb
09
38
1b
02
e6
f6
e0
ed
24
fc
f0
fe
dd
03
08
0c
05
eb
02
d4
2b
07
eb
f1
10
fa
de
1f
16
05
1e
04
ea
0f
12
07
02
f3
0e
04
d3
e2
b2
1e
07
0f
08
1a
1b
07
10
f9
0c
09
12
01
06
0b
06
fc
f2
0d
0f
26
e2
fb
13
10
ee
fc
02
15
ff
d1
fb
05
0b
f8
0f
01
fc
17
ef
09
09
eb
05
2a
16
05
de
09
0d
04
0c
13
f9
f8
01
fa
e5
14
28
0d
fc
00
0b
fe
e6
16
e0
f7
0d
e6
f5
f1
07
f5
f5
13
0d
0f
2a
11
09
0e
fd
ff
f4
07
fb
dd
cf
d4
10
04
07
0e
03
01
23
03
ff
0e
17
25
05
00
fe
dc
01
06
01
f4
d8
c4
e7
c3
25
f5
f5
04
f9
00
fd
ff
f4
06
22
11
f8
10
01
fe
01
fa
fa
15
f4
bb
d5
01
20
f9
1e
1a
15
28
1a
f1
0b
09
11
f9
04
fd
1c
03
09
fe
de
ea
08
0d
1e
08
f5
fd
1e
f6
fc
05
f3
0b
07
17
fd
ef
f9
fa
fd
f1
f1
0a
15
f6
ec
1d
04
ff
e9
fd
04
fb
18
e3
09
f2
18
fb
f3
01
05
fb
0a
fe
09
dd
f2
fc
08
01
16
f0
16
f7
03
09
0c
26
25
d8
de
ee
dc
eb
05
fd
f4
e3
0d
e8
f9
ea
1a
04
fe
03
05
f2
fc
08
04
2d
16
fe
03
11
12
0c
07
f6
06
14
16
0f
24
0e
17
1b
f2
d3
dd
f4
15
e9
ea
08
0e
e4
09
f3
02
0d
f5
17
ae
d3
d5
03
16
ee
f7
0d
08
39
fe
ec
06
03
fc
ec
09
fa
f7
ff
03
fc
14
19
d6
f0
1b
22
f8
ed
13
0a
16
ff
00
fe
1c
08
fe
f2
05
f8
19
02
08
ed
dd
0a
e5
01
fa
03
fb
f5
23
1d
04
14
f2
11
ff
03
1e
ef
fa
ec
03
f6
06
de
f4
de
fd
f1
e3
e9
f6
14
02
20
03
13
ee
ff
f7
ef
fc
12
fa
0b
f1
da
ee
f0
1a
fe
e7
fe
06
0b
0f
0d
04
ea
fe
d5
09
10
0e
0e
0f
e8
f5
04
ee
d8
e3
ce
1b
0e
f5
e7
1c
29
1b
20
fd
02
06
e2
f8
20
0d
07
ea
e7
07
f9
ee
d9
f6
10
19
e4
fc
fe
f9
f8
0d
fd
1c
22
14
05
1d
04
ee
09
fb
f6
f6
04
f5
11
f5
1f
11
f8
09
1f
04
de
f1
12
fa
f7
fe
0a
10
0e
03
fe
f5
0f
06
10
1f
05
1e
e7
dd
f2
13
0c
08
11
13
0c
e0
f1
11
1e
13
19
0e
12
0d
ef
dd
02
02
ff
f4
ec
0e
00
00
f9
09
0c
f2
f2
0d
fe
fc
0e
01
00
01
0a
08
09
26
ef
16
fa
fa
09
f3
07
f0
f9
f7
12
0a
f3
08
0f
03
23
10
fe
02
d1
e7
d7
31
0a
0c
0c
26
01
05
01
08
e1
21
f0
f7
0e
ef
10
f6
f3
04
1e
fe
01
11
1a
fb
dd
f2
e8
17
06
03
0e
ee
05
f7
ea
04
00
15
09
14
09
10
dc
e0
10
0e
17
02
0d
1d
2a
0e
14
ef
0b
18
0b
ea
f5
fa
f2
06
09
f0
f1
c9
f1
0f
13
0b
e7
f9
12
13
1f
1d
f4
15
0d
ef
ec
f2
1b
0f
fc
03
f5
03
fa
f5
c0
17
0b
e9
f5
12
f8
24
15
0e
04
e1
0b
12
f8
fa
04
fb
f7
00
04
0b
f1
02
28
f4
08
f4
ee
05
da
13
22
fb
23
ff
e7
24
f3
0a
fa
07
04
df
dd
d4
10
f8
24
ed
0a
09
27
05
15
da
0d
f3
0c
fe
eb
f5
0a
0e
01
f7
c5
ea
01
fc
15
04
fc
12
f1
09
e4
06
0e
07
ff
07
12
eb
fa
fe
01
03
fc
fa
fb
be
e8
f7
16
0e
f9
14
1e
1d
08
f5
05
f0
11
03
03
f5
fa
02
f5
f4
08
08
11
fe
0a
0d
db
07
0a
f2
08
0b
13
01
05
fd
11
0b
00
08
f5
f6
0a
e2
0b
18
1e
fd
0e
10
02
f2
f0
e9
ff
fa
eb
e1
01
fb
ed
fd
00
fe
07
f3
f9
f9
f3
fa
0e
14
03
0f
00
f8
07
05
e3
1c
13
0a
0c
f7
07
07
fe
0f
f8
fe
fa
f5
f2
17
06
d6
f6
07
0b
07
19
0f
17
0b
db
dc
f6
0b
01
fe
f9
0b
0f
17
02
15
1d
1d
fe
f4
13
f3
de
de
f5
f2
0d
0e
f9
fd
29
06
07
f4
06
da
17
d1
07
0d
06
fe
f2
07
15
0b
e5
f7
08
fc
05
17
18
01
0f
07
00
fe
17
f1
f4
dd
e9
fe
fc
eb
cf
06
1e
07
1d
fe
00
f9
f2
f5
00
fe
09
fd
fe
16
07
09
09
0d
07
fe
e7
fd
05
fc
fa
f9
16
0c
ee
f6
02
13
08
03
03
f4
fe
fe
f3
f3
e0
19
0c
ee
e3
e4
f1
fb
e3
0b
04
f9
f0
fa
fe
1f
03
05
f2
ff
16
fc
fb
f4
fd
fa
0e
11
f8
f8
0c
ff
f1
0d
03
e4
fa
14
fc
09
01
04
f7
09
ef
f2
18
f6
0a
ff
f8
11
01
02
14
31
1f
fa
e8
06
07
27
13
0b
f8
ff
0f
0f
0f
01
0a
ff
0a
eb
de
e9
f6
e5
de
e8
05
f3
eb
f9
f8
f4
03
fc
e4
bd
c1
eb
0b
0c
00
21
fd
2d
0f
f0
fb
e9
07
01
02
08
fc
08
fd
ff
11
e9
e4
0e
0b
11
ff
fa
f9
0e
0f
05
02
0c
18
11
f1
0b
27
09
0b
00
fd
ec
ee
eb
15
0b
f7
0d
e2
0e
13
17
14
15
fe
12
e7
f9
1b
10
15
01
fd
f0
03
e0
f3
02
03
e9
0c
e7
11
0d
02
f0
fe
09
08
f8
11
00
05
fd
0d
e9
f3
f7
f3
05
0a
1c
37
20
f7
0d
1f
fb
0f
16
0f
f4
0a
fc
14
1b
14
0d
f6
0c
08
e8
ea
1d
f8
01
ea
f8
0c
fb
df
c4
f2
3c
04
12
ef
e6
e7
f6
fc
f2
f8
f7
e4
b2
ef
05
f7
f0
eb
fe
05
1e
1d
0d
0e
1a
fe
fd
f8
ee
05
0c
07
02
f4
00
04
22
f7
f5
f8
03
e9
eb
da
00
f8
13
0f
0f
fc
eb
f6
04
f1
01
fe
fc
f6
fb
ee
f3
2e
05
f5
1b
f3
22
21
d9
f5
f0
e5
f6
02
fc
f9
03
02
0c
03
0c
ce
dc
ef
f9
0a
00
0c
23
21
36
f8
ff
e9
fd
fc
f7
e9
e8
ec
fd
fc
fd
e3
f4
d4
e6
10
22
fb
fb
16
0b
f0
23
08
16
0c
0d
fa
0c
fc
04
0d
f9
ff
21
e4
08
02
1d
ff
ee
fc
05
2b
00
d2
07
07
f5
f6
05
19
f9
ea
fe
00
06
e8
f9
e8
f1
cc
f6
00
ff
fb
0a
e6
01
1a
24
07
11
0b
13
00
ee
fe
ed
ee
fa
04
fe
d0
ec
dc
fc
14
16
07
eb
eb
f9
ef
f0
0c
02
00
05
01
ee
f6
05
0c
ec
0e
0f
13
1e
f1
eb
f3
f0
f3
2a
10
1c
22
f9
e7
17
33
14
1e
f8
fe
0b
30
ec
12
d9
f5
f0
ef
f9
e2
fb
fd
f9
05
0a
05
fd
f0
fe
0b
fc
00
ff
00
00
00
00
00
00
00
00
00
00
00
00
00
00
00
00
00
00
00
00
00
00
00
00
00
00
00
00
00
00
00
00
00
00
00
00
00
00
00
00
00
00
00
00
00
00
00
00
00
00
00
00
00
00
00
00
00
00
00
00
00
00
00
00
00
00
00
00
00
00
00
00
00
00
00
00
00
00
00
00
00
00
00
00
00
00
00
00
00
00
00
00
00
00
00
00
00
00
00
00
00
00
00
00
00
00
00
00
00
00
00
00
00
00
00
00
00
00
00
00
00
00
00
00
00
00
00
00
00
00
00
00
00
00
00
00
00
00
00
00
00
00
00
00
00
00
00
00
00
00
00
00
00
00
00
00
00
00
00
00
00
00
00
00
00
00
00
00
00
00
00
00
00
00
00
00
00
00
00
00
00
00
00
00
00
00
00
00
00
00
00
00
00
00
00
00
00
00
00
00
00
00
00
00
00
00
00
00
00
00
00
00
00
00
00
00
00
00
00
00
00
00
00
00
00
00
00
00
00
00
00
00
00
00
00
00
00
00
00
00
00
00
00
00
00
00
00
00
00
00
00
00
00
00
00
00
00
00
00
00
00
00
00
00
00
00
00
00
00
00
00
00
00
00
00
00
00
00
00
00
00
00
00
00
00
00
00
00
00
00
00
00
00
00
00
00
00
00
00
00
00
00
00
00
00
00
00
00
00
00
00
00
00
00
00
00
00
00
00
00
00
00
00
00
00
00
00
00
00
00
00
00
00
00
00
00
00
00
00
00
00
00
00
00
00
00
00
00
00
00
00
00
00
00
00
00
00
00
00
00
00
00
00
00
00
00
00
00
00
00
00
00
00
00
00
00
00
00
00
00
00
00
00
00
00
00
00
00
00
00
00
00
00
00
00
00
00
00
00
00
00
00
00
00
00
00
00
00
00
00
00
00
00
00
00
00
00
00
00
00
00
00
00
00
00
00
00
00
00
00
00
00
00
00
00
00
00
00
00
00
00
00
00
00
00
00
00
00
00
00
00
00
00
00
00
00
00
00
00
00
00
00
00
00
00
00
00
00
00
00
00
00
00
00
00
00
00
00
00
00
00
00
00
00
00
00
00
00
00
00
00
00
00
00
00
00
00
00
00
00
00
00
00
00
00
00
00
00
00
00
00
00
00
00
00
00
00
00
00
00
00
00
00
00
00
00
00
00
00
00
00
00
00
00
00
00
00
00
00
00
00
00
00
00
00
00
00
00
00
00
00
00
00
00
00
00
00
00
00
00
00
00
00
00
00
00
00
00
00
00
00
00
00
00
00
00
00
00
00
00
00
00
00
00
00
00
00
00
00
00
00
00
00
00
00
00
00
00
00
00
00
00
00
00
00
00
00
00
00
00
00
00
00
00
00
00
00
00
00
00
00
00
00
00
00
00
00
00
00
00
00
00
00
00
00
00
00
00
00
00
00
00
00
00
00
00
00
00
00
00
00
00
00
00
00
00
00
00
00
00
00
00
00
00
00
00
00
00
00
00
00
00
00
00
00
00
00
00
00
00
00
00
00
00
00
00
00
00
00
00
00
00
00
00
00
00
00
00
00
00
00
00
00
00
00
00
00
00
00
00
00
00
00
00
00
00
00
00
00
00
00
00
00
00
00
00
00
00
00
00
00
00
00
00
00
00
00
00
00
00
00
00
00
00
00
00
00
00
00
00
00
00
00
00
00
00
00
00
00
00
00
00
00
00
00
00
00
00
00
00
00
00
00
00
00
00
00
00
00
00
00
00
00
00
00
00
00
00
00
00
00
00
00
00
00
00
00
00
00
00
00
00
00
00
00
00
00
00
00
00
00
00
00
00
00
00
00
00
00
00
00
00
00
00
00
00
00
00
00
00
00
00
00
00
00
00
00
00
00
00
00
00
00
00
00
00
00
00
00
00
00
00
00
00
00
00
00
00
00
00
00
00
00
00
00
00
00
00
00
00
00
00
00
00
00
00
00
00
00
00
00
00
00
00
00
00
00
00
00
00
00
00
00
00
00
00
00
00
00
00
00
00
00
00
00
00
00
00
00
00
00
00
00
00
00
00
00
00
00
00
00
00
00
00
00
00
00
00
00
00
00
00
00
00
00
00
00
00
00
00
00
00
00
00
00
00
00
00
00
00
00
00
00
00
00
00
00
00
00
00
00
00
00
00
00
00
00
00
00
00
00
00
00
00
00
00
00
00
00
00
00
00
00
00
00
00
00
00
00
00
00
00
00
00
00
00
00
00
00
00
00
00
00
00
00
00
00
00
00
00
00
00
00
00
00
00
00
00
00
00
00
00
00
00
00
00
00
00
00
00
00
00
00
00
00
00
00
00
00
00
00
00
00
00
00
00
00
00
00
00
00
00
00
00
00
00
00
00
00
00
00
00
00
00
00
00
00
00
00
00
00
00
00
00
00
00
00
00
00
00
00
00
00
00
00
00
00
00
00
00
00
00
00
00
00
00
00
00
00
00
00
00
00
00
00
00
00
00
00
00
00
00
00
00
00
00
00
00
00
00
00
00
00
00
00
00
00
00
00
00
00
00
00
00
00
00
00
00
00
00
00
00
00
00
00
00
00
00
00
00
00
00
00
00
00
00
00
00
00
00
00
00
00
00
00
00
00
00
00
00
00
00
00
00
00
00
00
00
00
00
00
00
00
00
00
00
00
00
00
00
00
00
00
00
00
00
00
00
00
00
00
00
00
00
00
00
00
00
00
00
00
00
00
00
00
00
00
00
00
00
00
00
00
00
00
00
00
00
00
00
00
00
00
00
00
00
00
00
00
00
00
00
00
00
00
00
00
00
00
00
00
00
00
00
00
00
00
00
00
00
00
00
00
00
00
00
00
00
00
00
00
00
00
00
00
00
00
00
00
00
00
00
00
00
00
00
00
00
00
00
00
00
00
00
00
00
00
00
00
00
00
00
00
00
00
00
00
00
00
00
00
00
00
00
00
00
00
00
00
00
00
00
00
00
00
00
00
00
00
00
00
00
00
00
00
00
00
00
00
00
00
00
00
00
00
00
00
00
00
00
00
00
00
00
00
00
00
00
00
00
00
00
00
00
00
00
00
00
00
00
00
00
00
00
00
00
00
00
00
00
00
00
00
00
00
00
00
00
00
00
00
00
00
00
00
00
00
00
00
00
00
00
00
00
00
00
00
00
00
00
00
00
00
00
00
00
00
00
00
00
00
00
00
00
00
00
00
00
00
00
00
00
00
00
00
00
00
00
00
00
00
00
00
00
00
00
00
00
00
00
00
00
00
00
00
00
00
00
00
00
00
00
00
00
00
00
00
00
00
00
00
00
00
00
00
00
00
00
00
00
00
00
00
00
00
00
00
00
00
00
00
00
00
00
00
00
00
00
00
00
00
00
00
00
00
00
00
00
00
00
00
00
00
00
00
00
00
00
00
00
00
00
00
00
00
00
00
00
00
00
00
00
00
00
00
00
00
00
00
00
00
00
00
00
00
00
00
00
00
00
00
00
00
00
00
00
00
00
00
00
00
00
00
00
00
00
00
00
00
00
00
00
00
00
00
00
00
00
00
00
00
00
00
00
00
00
00
00
00
00
00
00
00
00
00
00
00
00
00
00
00
00
00
00
00
00
00
00
00
00
00
00
00
00
00
00
00
00
00
00
00
00
00
00
00
00
00
00
00
00
00
00
00
00
00
00
00
00
00
00
00
00
00
00
00
00
00
00
00
00
00
00
00
00
00
00
00
00
00
00
00
00
00
00
00
00
00
00
00
00
00
00
00
00
00
00
00
00
00
00
00
00
00
00
00
00
00
00
00
00
00
00
00
00
00
00
00
00
00
00
00
00
00
00
00
00
00
00
00
00
00
00
00
00
00
00
00
00
00
00
00
00
00
00
00
00
00
00
00
00
00
00
00
00
00
00
00
00
00
00
00
00
00
00
00
00
00
00
00
00
00
00
00
00
00
00
00
00
00
00
00
00
00
00
00
00
00
00
00
00
00
00
00
00
00
00
00
00
00
00
00
00
00
00
00
00
00
00
00
00
00
00
00
00
00
00
00
00
00
00
00
00
00
00
00
00
00
00
00
00
00
00
00
00
00
00
00
00
00
00
00
00
00
00
00
00
00
00
00
00
00
00
00
00
00
00
00
00
00
00
00
00
00
00
00
00
00
00
00
00
00
00
00
00
00
00
00
00
00
00
00
00
00
00
00
00
00
00
00
00
00
00
00
00
00
00
00
00
00
00
00
00
00
00
00
00
00
00
00
00
00
00
00
00
00
00
00
00
00
00
00
00
00
00
00
00
00
00
00
00
00
00
00
00
00
00
00
00
00
00
00
00
00
00
00
00
00
00
00
00
00
00
00
00
00
00
00
00
00
00
00
00
00
00
00
00
00
00
00
00
00
00
00
00
00
00
00
00
00
00
00
00
00
00
00
00
00
00
00
00
00
00
00
00
00
00
00
00
00
00
00
00
00
00
00
00
00
00
00
00
00
00
00
00
00
00
00
00
00
00
00
00
00
00
00
00
00
00
00
00
00
00
00
00
00
00
00
00
00
00
00
00
00
00
00
00
00
00
00
00
00
00
00
00
00
00
00
00
00
00
00
00
00
00
00
00
00
00
00
00
00
00
00
00
00
00
00
00
00
00
00
00
00
00
00
00
00
00
00
00
00
00
00
00
00
00
00
00
00
00
00
00
00
00
00
00
00
00
00
00
00
00
00
00
00
00
00
00
00
00
00
00
00
00
00
00
00
00
00
00
00
00
00
00
00
00
01
00
00
00
00
00
00
00
00
00
00
00
00
00
00
00
00
00
00
00
00
00
00
00
00
00
00
00
00
00
00
00
00
00
00
00
00
00
00
00
00
00
00
00
00
00
00
00
00
00
00
00
00
00
00
00
00
00
00
00
00
00
00
00
00
00
00
00
00
00
00
00
00
00
00
00
00
00
00
00
00
00
00
00
00
00
00
00
00
00
00
00
00
00
00
00
00
00
00
00
00
00
00
00
00
00
00
00
00
00
00
00
00
00
00
00
00
00
00
00
00
00
00
00
00
00
00
00
00
00
00
00
00
00
00
00
00
00
00
00
00
00
00
00
00
00
00
00
00
00
00
00
00
00
00
00
00
00
00
00
00
00
00
00
00
00
00
00
00
00
00
00
00
00
00
00
00
00
00
00
00
00
00
00
00
00
00
00
00
00
00
00
00
00
00
00
00
00
00
00
00
00
00
00
00
00
00
00
00
00
00
00
00
00
00
00
00
00
00
00
00
00
00
00
00
00
00
00
00
00
00
00
00
00
00
00
00
00
00
00
00
00
00
00
00
00
00
00
00
00
00
00
00
00
00
00
00
00
00
00
00
00
00
00
00
00
00
00
00
00
00
00
00
00
00
00
00
00
00
00
00
00
00
00
00
00
00
00
00
00
00
00
00
00
00
00
00
00
00
00
00
00
00
00
00
00
00
00
00
00
00
00
00
00
00
00
00
00
00
00
00
00
00
00
00
00
00
00
00
00
00
00
00
00
00
00
00
00
00
00
00
00
00
00
00
00
00
00
00
00
00
00
00
00
00
00
00
00
00
00
00
00
00
00
00
00
00
00
00
00
00
00
00
00
00
00
00
00
00
00
00
00
00
00
00
00
00
00
00
00
00
00
00
00
00
00
00
00
00
00
00
00
00
00
00
00
00
00
00
00
00
00
00
00
00
00
00
00
00
00
00
00
00
00
00
00
00
00
00
00
00
00
00
00
00
00
00
00
00
00
00
00
00
00
00
00
00
00
00
00
00
00
00
00
00
00
00
00
00
00
00
00
00
00
00
00
00
00
00
00
00
00
00
00
00
00
00
00
00
00
00
00
00
00
00
00
00
00
00
00
00
00
00
00
00
00
00
00
00
00
00
00
00
00
00
00
00
00
00
00
00
00
00
00
00
00
00
00
00
00
00
00
00
00
00
00
00
00
00
00
00
00
00
00
00
00
00
00
00
00
00
00
00
00
00
00
00
00
00
00
00
00
00
00
00
00
00
00
00
00
00
00
00
00
00
00
00
00
00
00
00
00
00
00
00
00
00
00
00
00
00
00
00
00
00
00
00
00
00
00
00
00
00
00
00
00
00
00
00
00
00
00
00
00
00
00
00
00
00
00
00
00
00
00
00
00
00
00
00
00
00
00
00
00
00
00
00
00
00
00
00
00
00
00
00
00
00
00
00
00
00
00
00
00
00
00
00
00
00
00
00
00
00
00
00
00
00
00
00
00
00
00
00
00
00
00
00
00
00
00
00
00
00
00
00
00
00
00
00
00
00
00
00
00
00
00
00
00
00
00
00
00
00
00
00
00
00
00
00
00
00
00
00
00
00
00
00
00
00
00
00
00
00
00
00
00
00
00
00
00
00
00
00
00
00
00
00
00
00
00
00
00
00
00
00
00
00
00
00
00
00
00
00
00
00
00
00
00
00
00
00
00
00
00
00
00
00
00
00
00
00
00
00
00
00
00
00
00
00
00
00
00
00
00
00
00
00
00
00
00
00
00
00
00
00
00
00
00
00
00
00
00
00
00
00
00
00
00
00
00
00
00
00
00
00
00
00
00
00
00
00
00
00
00
00
00
00
00
00
00
00
00
00
00
00
00
00
00
18
0f
f5
02
13
08
09
1e
12
00
eb
da
e4
09
18
e8
f0
f7
ec
ea
e4
fc
07
d3
eb
ec
03
ff
1a
ec
f4
03
12
08
f1
17
f3
fc
f3
11
fe
01
26
0e
1b
e8
fc
40
11
1a
10
14
f6
0c
03
17
07
12
0d
00
e1
ee
ff
1d
05
1c
1e
f2
04
eb
0a
d7
f4
da
f8
ef
e3
f4
0e
f9
ef
02
f1
f4
e4
fd
f6
fa
fc
05
19
e6
06
28
f5
06
f5
02
f2
05
e5
ea
dc
e3
f3
16
1a
ef
f7
02
f9
f8
fb
19
07
fe
f1
18
ff
e0
02
09
02
19
16
f6
0a
08
e7
fd
0f
f8
08
02
10
0a
f9
fa
e7
f0
00
fc
0f
fe
e8
d0
eb
01
f1
05
01
f9
12
e2
fc
fc
fa
0f
05
12
f6
25
e0
e2
e2
d8
e8
fe
00
ff
06
0b
00
fd
df
f4
f0
f2
ec
16
05
fc
f1
ee
fc
13
0e
0c
fb
05
0e
0c
03
0d
ed
e9
fe
fa
fa
04
00
ed
01
f4
e7
fe
00
25
33
e5
e4
d3
f8
ed
25
03
fa
f1
fc
09
12
09
fc
f6
fe
f6
10
0c
f3
06
01
15
0e
ed
f3
07
13
f2
30
f8
fb
e5
fe
ff
ff
fe
f8
eb
08
06
09
06
04
13
0c
08
ec
06
13
f8
f7
f5
e8
f6
08
0c
07
09
02
f3
f6
f1
f2
f5
ef
0d
fc
ef
07
02
ec
e0
ce
d3
d2
ef
19
28
13
02
ee
ef
01
f0
fb
f6
04
04
01
10
11
fe
00
f1
eb
0e
fa
e0
00
18
07
11
10
02
17
04
03
2e
1e
04
02
f4
06
e2
09
10
ed
0b
fb
04
f9
fd
d6
e6
06
0c
eb
f9
f1
eb
f2
db
f0
f6
fc
01
db
21
0e
f1
17
0f
0d
fc
04
09
04
f1
f0
02
10
0e
08
f2
ff
fe
fc
02
dc
19
f0
fe
1e
09
f7
1d
18
1a
f8
03
f4
f9
ee
f0
ff
ff
00
08
0c
06
fc
da
08
f7
f1
f1
db
f4
fb
15
1a
eb
0e
e9
f3
d0
fc
f0
fc
e8
01
0e
00
fe
24
1b
d6
fb
fb
e6
f9
01
05
15
07
0b
fa
f3
11
f5
fd
f2
0a
0b
ff
08
04
12
13
dc
ff
dd
15
03
fa
02
f2
17
01
14
fb
01
f7
08
f9
07
fb
f6
ec
07
16
fe
ff
ff
11
05
f8
01
03
f6
e9
fc
04
25
06
e5
f1
ef
f8
f9
03
13
00
e5
19
e1
0f
f7
0f
04
f8
f4
f1
d8
d5
fb
0d
fd
db
ee
ef
ee
f3
fb
1d
e9
03
34
f3
02
ff
00
f0
fb
0e
f7
ee
e1
fb
f2
fb
f9
ee
dc
ed
f8
f7
f5
fd
0a
ea
14
f8
ff
06
0d
fd
d8
00
ee
ed
f8
0c
06
e5
de
01
eb
e6
ee
03
0e
ef
f8
fd
db
ec
03
e3
e2
e7
08
f8
01
ec
ff
f7
f2
e8
e4
f0
f1
fd
fc
fd
ed
0e
ed
d6
f4
fb
ea
f0
17
13
f4
28
f9
ec
ee
f9
fb
f8
fa
06
1e
f7
fd
04
13
16
e6
f9
f3
0c
03
04
16
02
00
e4
f9
f2
07
f1
f3
eb
f8
01
f1
10
f9
fd
19
20
fa
fb
0a
f9
e6
10
12
ee
f2
f6
1b
f1
10
fa
f8
0f
ed
13
f6
d3
f4
f0
db
ca
ee
da
e4
f9
e5
f5
0b
06
fd
f6
fc
f4
f0
f3
00
03
ec
f1
f4
28
00
00
0e
f7
f8
1e
07
03
18
fc
f5
f5
f7
f7
06
fa
fa
10
22
03
07
fd
26
f3
0f
13
03
08
f3
0e
f9
fd
f2
fb
e7
fb
e3
0a
e3
f0
02
04
0e
f0
2c
09
f1
ff
0f
0f
0c
fe
08
02
ec
00
06
09
22
fd
04
16
04
ff
18
20
0b
ee
e1
fc
f8
d5
ed
01
0f
1e
1f
0e
04
e8
d6
03
f5
0b
e5
01
09
01
ff
02
ff
34
f6
fe
22
03
ef
03
0c
0c
ef
0c
09
f8
fd
fb
0e
09
01
08
0c
0c
0f
58
19
00
fc
f2
e1
e3
f0
e5
ec
f1
fe
10
f4
10
17
05
00
05
09
02
09
06
16
ed
14
f6
12
09
ed
e4
05
ea
f0
17
13
08
00
f8
f4
02
00
ec
0e
13
0a
18
02
ea
03
18
07
0c
fa
04
dd
f3
d9
ea
01
15
f7
01
07
fb
fe
12
23
07
13
0e
0a
ff
fb
04
02
09
06
f8
09
01
01
02
0d
0b
0e
14
03
fd
f9
fc
09
05
df
0e
09
f5
09
1a
fd
f5
11
ec
f3
1c
09
13
0a
0c
f8
01
0c
0e
03
fc
f5
08
f2
f9
0b
05
fd
f0
05
f2
10
f7
f7
09
17
02
f9
ff
ff
0a
0b
09
10
f7
df
21
1a
08
22
12
fb
03
18
01
f5
03
0e
dd
18
eb
f3
f8
f0
ff
02
f2
25
e1
0c
f8
00
f5
00
08
19
17
e7
00
0f
f0
00
f2
d6
ea
e8
d2
f5
00
03
e0
0c
ea
f4
e6
fb
f7
fb
d7
00
e8
f1
fe
fc
f3
fc
f2
0c
fc
09
fc
10
0e
ce
10
08
e8
dd
05
f2
d6
e3
f4
03
f7
f3
eb
04
01
fa
f7
e1
e4
f7
05
02
06
1a
00
f3
f7
0b
05
f8
0a
1d
2e
12
11
ed
0f
00
f7
fa
0b
f8
03
10
1c
db
fb
fc
ef
ee
01
fb
0b
fc
23
27
08
0c
e7
e0
12
f0
f4
f0
05
fb
e9
01
2b
fb
fe
ed
ef
fd
f8
fc
f4
20
f7
1c
01
e4
09
f2
f4
f6
ef
fa
02
02
04
ff
ed
f6
00
02
11
1c
15
18
06
19
0a
06
0f
0a
11
0d
0e
09
03
04
f6
05
ff
19
f7
fe
09
f9
e2
da
f6
f8
f9
f3
17
f0
fe
09
06
0c
ff
fa
f0
09
f7
32
27
04
f6
0c
fa
fc
0e
11
07
e9
ff
ec
fd
13
f1
05
f8
fb
ee
dd
07
0b
fd
0b
01
fd
10
10
e3
f2
e0
e9
ca
f3
fe
00
e8
eb
f2
09
fd
f2
04
11
0a
36
13
f7
f3
f4
f8
05
00
fb
f0
f6
f0
f5
15
f1
ff
f6
1f
15
f9
2d
09
08
10
cc
1e
10
1a
04
f6
f8
f8
09
dd
ef
08
08
04
05
fa
fd
ea
ec
0a
06
f3
3e
e7
17
1c
08
04
02
03
03
2f
1b
ea
f8
03
1f
13
07
14
0f
11
09
fe
02
16
25
e6
f8
fe
08
f8
ed
1b
ef
ff
05
e7
f8
f7
f0
fa
ed
f6
f9
fa
fe
f7
db
e8
f0
fc
f9
fc
e1
fd
ed
fd
ff
1e
13
e0
df
ff
f5
02
fe
06
04
f4
fc
ec
ec
f0
02
00
ed
e4
e7
1a
1e
e1
0c
f1
df
02
03
fe
fa
fa
04
16
f7
f8
02
2e
04
03
1c
07
fe
06
f9
fe
d0
1c
0c
04
eb
02
15
08
20
1f
10
22
0c
13
2b
0e
f9
fe
14
02
0a
fc
df
f1
fb
f6
03
ff
15
00
f0
f1
e7
02
f4
f1
0f
0d
19
12
01
10
fa
f6
23
0c
fc
11
fa
f0
ed
e5
0a
07
05
19
06
13
ee
ee
33
f0
f0
de
ed
e6
eb
06
f6
1a
04
0a
f2
f6
ee
ef
f6
04
05
e8
22
0f
f1
05
07
08
00
f8
d7
cf
e6
fe
fc
f1
06
0f
f9
fd
fe
fe
f6
f0
08
03
f9
f5
08
0d
f8
fd
07
f6
1e
09
18
0e
e7
ed
e2
e6
06
db
f0
e2
f1
e5
eb
03
02
fb
04
df
f7
0b
d8
e4
db
fd
0c
f9
0c
fb
02
03
f4
f9
f5
f3
fa
fa
05
f9
f6
18
d3
05
0f
ef
08
0a
f1
e4
04
f6
18
ff
0f
29
ff
23
11
08
ff
01
24
0b
b8
08
05
11
2f
12
0f
1b
0b
1a
1d
13
0b
fb
34
f2
02
05
05
fe
14
12
03
0a
c8
ea
f9
04
23
05
1b
ed
fb
f6
09
03
0e
1a
0a
08
f2
fe
09
fe
07
f9
14
cc
ee
0d
fc
ec
04
0b
f7
1d
16
0f
fe
1c
2a
fb
05
11
02
ee
06
fe
e2
07
c9
15
1e
fc
14
32
14
03
f8
12
ff
14
fc
18
18
f9
10
fa
f6
fe
0f
3a
d1
10
0d
03
07
08
27
0f
1d
ed
00
0c
10
ff
f6
f9
fc
1c
eb
05
12
ea
f8
17
00
f3
f3
02
f9
fe
0a
1c
0d
f4
0f
03
f7
01
05
15
fb
ef
f4
f4
d7
0a
03
f4
14
e7
fd
03
e8
ec
1a
04
eb
f1
15
19
0d
fe
14
14
08
07
08
f4
05
e4
ed
f5
fa
e2
e0
f3
f4
f7
0b
15
22
17
25
16
08
fb
00
1a
0d
ff
cc
e0
0c
c5
18
0c
ff
0d
11
f3
fb
09
d8
ef
f8
f8
ed
15
ef
17
fb
06
f7
10
0c
b7
07
f8
0a
0f
2b
13
2c
17
0f
eb
f1
05
1b
11
ed
02
11
f3
03
04
e7
d6
e7
f3
f9
d3
ea
f2
15
0d
10
17
f8
fe
0c
2c
08
ff
fc
01
07
f7
f9
06
fa
fe
d0
1d
02
02
1e
08
1f
14
03
f8
00
f4
16
16
03
e9
fc
fb
fc
fb
20
d4
f4
09
03
12
fb
f3
f0
e7
1c
42
07
07
1b
06
01
f4
fe
fb
20
11
0c
f6
c0
df
e3
d6
ff
f8
e6
10
12
18
f0
f7
f2
20
21
fa
1c
13
0d
0a
fd
fb
f6
02
fa
fb
0f
e7
fb
1d
19
03
ea
f8
09
fd
e4
f4
f8
f8
ff
fe
07
fd
fe
e1
f7
f5
00
0b
16
20
09
04
0a
fd
07
fd
14
fb
fb
08
0a
f9
0f
0b
0f
02
f7
1a
e8
db
26
1c
e8
18
0e
f9
07
02
f4
0e
20
09
12
06
fa
07
06
08
fa
cc
e2
15
eb
f2
10
0d
f5
06
ed
07
f1
ec
06
06
e7
0a
07
fd
11
eb
f6
f4
14
ed
f7
09
fe
db
fa
10
0b
1c
1f
06
ff
04
fa
f8
10
d7
eb
0c
03
08
fa
e8
04
f0
fc
0b
17
18
03
0f
15
0a
00
0b
07
0c
00
01
16
0c
19
f8
f3
fb
0b
f2
09
ed
f4
21
0d
ee
0f
06
0b
0e
f9
f2
02
f9
05
2a
20
21
00
f5
02
e3
d4
db
e1
f6
00
f6
f0
f8
fa
fc
f8
f1
ee
08
09
0e
16
fe
0b
10
ff
fb
e1
f6
f1
e8
f8
10
04
f3
1e
10
f9
f6
01
1c
f4
06
09
06
0c
13
01
fd
f7
fc
dd
ed
f9
02
0a
f0
db
fc
ec
11
02
1c
f3
03
ed
1e
0c
0e
2a
19
f3
f4
00
e7
05
ee
18
16
f9
18
1a
02
15
02
0b
11
04
fb
10
0c
eb
15
f8
01
f4
f9
e0
e4
fc
f9
08
00
17
1a
f6
de
ed
f6
f6
0a
12
fc
f7
12
05
05
09
e9
2f
dd
de
f8
ee
0a
17
06
15
f8
e1
1f
ed
fd
16
fb
0d
12
07
02
01
f6
fe
20
e2
fc
12
10
ff
0c
f2
f7
f9
15
18
13
ef
05
06
1b
fc
f7
31
05
fd
08
f8
0e
cf
18
24
14
20
fa
04
2b
07
13
01
f9
08
04
0d
f9
fb
13
09
15
02
de
f7
e0
16
11
ee
f8
fc
f7
15
11
18
0b
20
14
03
15
e9
07
0f
ff
06
09
fb
fd
16
d0
fd
04
f2
26
06
f5
1d
01
fc
06
f4
0e
fc
0d
ee
01
f4
e7
f7
0b
21
e9
fc
28
e8
0a
ff
f2
f2
0d
16
0c
fa
09
12
f2
14
01
0c
fd
ec
fe
e7
0e
f5
08
02
1a
09
0d
04
fe
04
08
f0
0e
ec
16
17
ef
fb
13
f5
05
e9
c9
f3
e6
d2
ee
f1
e5
31
28
0c
e6
ee
fb
05
f3
00
01
ec
f7
fa
f2
f7
f4
cf
32
e6
c7
09
08
2b
11
07
10
0d
01
ff
1a
01
17
0c
11
e7
12
ec
05
ff
15
f8
0e
e2
fb
16
e5
15
1e
0b
0b
01
ff
fe
04
f7
1f
fc
e9
03
eb
e9
06
ef
fc
0a
0a
f5
09
04
0a
07
f8
f9
fd
fc
f3
f3
02
0c
0d
0b
0d
12
12
03
e9
19
f3
01
f2
f5
0b
00
09
06
07
04
f8
fc
ee
ef
17
f1
07
00
e9
04
09
0a
e5
fa
e0
ef
09
df
0d
d9
12
03
25
08
f2
1a
fb
ef
e7
05
07
08
01
eb
09
0b
0b
f9
0b
08
fb
35
1c
fa
d1
db
e6
f1
10
10
d5
fb
2f
0e
09
f5
06
de
f9
ff
e7
1c
19
0a
fa
0b
08
f3
d4
eb
ff
fe
f0
18
17
0e
1f
fd
fe
fa
24
09
14
f5
ed
f3
04
ff
f0
f1
1c
2c
21
09
05
00
0d
f5
ff
f9
0a
f7
f6
0c
f1
d9
eb
f1
e6
f3
da
fc
18
15
f4
14
f2
fb
04
fd
fc
08
14
f5
f3
fb
f3
f1
f3
f8
de
ef
07
f4
04
1a
0d
fb
ee
f2
f7
f7
fc
e1
e6
29
f6
e1
e7
f8
e6
f3
ec
f0
01
ee
15
fa
e4
ef
e1
0d
e1
fb
0a
f9
04
19
fd
0c
fb
ee
cf
04
f1
db
00
d0
f4
f3
d7
10
03
14
f9
03
18
08
10
12
15
24
fe
ec
fd
eb
1f
1e
0d
fc
0c
f9
03
fc
fe
f7
f3
f9
ea
fe
f6
f0
00
0c
0a
07
0f
f9
f3
ea
c1
00
d1
19
ff
16
ec
26
00
ef
eb
ee
03
05
15
fd
12
f3
f8
e1
f3
ea
e2
09
ee
0e
20
0e
19
0d
f2
de
f2
f3
ff
fa
fd
0a
0b
12
14
fb
fb
fb
04
cd
e9
fc
f3
f3
f9
f7
14
2e
23
16
20
fd
0e
15
21
0c
04
04
fd
ea
f4
ee
0c
fd
14
f4
19
04
26
18
1f
26
fe
fa
fd
2c
1b
d9
ee
04
f9
f6
ff
fa
d8
ef
f8
fb
fd
1a
0a
33
37
13
06
eb
e6
fa
f2
ff
04
0e
17
fd
f7
f3
05
d1
ee
08
ec
f3
f7
12
10
e7
0c
e2
00
1c
0e
14
ee
e9
f0
f8
fe
fd
fc
fc
e1
d5
e7
00
04
e2
f5
ee
ed
f6
21
08
05
02
1d
16
0a
fa
fc
01
00
04
06
f5
fa
26
f6
fc
1b
24
22
f6
ef
13
07
05
15
15
05
09
f6
09
f9
04
fe
fd
ff
19
d5
01
05
0b
f3
12
1f
04
12
db
00
f2
e6
ee
0e
04
f8
09
fc
f5
f9
2e
fb
c9
fe
de
03
03
d7
f1
fe
2c
23
08
13
01
19
29
fb
fb
f1
0a
0e
07
de
d7
e0
ec
f5
00
eb
07
3b
0e
04
f7
ed
ff
0e
1f
fc
18
0f
0b
02
02
ff
28
03
03
03
21
f0
e8
0f
ec
0b
fa
09
12
06
0a
1a
11
fc
08
04
fc
fe
09
05
01
f2
11
b2
0c
fc
ee
00
12
f1
0d
fd
19
f3
17
12
1a
1c
ef
fe
e9
f2
fc
00
fe
e3
e8
19
f9
2a
07
f9
ec
03
f5
e6
f5
01
ec
ff
fe
01
f8
f7
04
08
d7
02
fb
12
0d
f9
12
0c
e9
f0
ed
f4
08
0a
f2
04
0c
29
1d
2a
00
fe
fd
e3
e2
ff
f1
e8
08
fb
0f
00
11
0a
06
f5
02
05
07
fc
ed
0c
f7
fd
ff
ec
01
18
f8
e9
03
01
f1
17
08
14
20
10
0f
fa
00
ea
02
01
00
fe
01
f1
16
f8
fa
e4
1d
1a
fe
f2
0c
09
f5
23
1a
e9
1d
22
2f
f9
f3
01
f5
fd
03
0b
cc
ef
f4
dd
17
f1
f3
22
12
08
db
04
06
e5
18
f9
fd
f6
ea
fc
fe
00
01
f6
24
02
2d
0c
d9
f1
01
fa
e5
1a
2d
00
15
03
f8
06
e4
f2
f8
f7
fd
ee
fe
ff
0d
ff
04
03
ee
0b
35
fc
11
0c
fe
00
fd
e4
0d
ff
f5
ec
f5
f7
e5
0f
08
eb
f9
0b
eb
ef
03
e2
15
f3
fd
f3
fb
f2
08
f4
f7
02
f5
f9
fc
fc
2b
1f
05
bf
c8
f5
0a
e9
fb
14
f6
f5
0f
0a
02
fd
ff
f2
ec
f6
fc
fb
f3
1e
0b
20
fc
fb
ed
01
12
e5
e3
06
01
ee
1f
ff
fc
f2
ee
f9
f4
fb
f6
08
e6
0d
13
0d
2f
ff
fd
09
de
f0
05
fb
07
0f
ee
fa
02
f2
f5
fc
fb
fc
dd
fd
10
f0
32
f7
10
e8
f6
05
08
07
02
e3
f2
03
e3
08
d9
00
f9
f1
f4
fb
ee
ff
e5
01
0d
f7
0e
0b
d6
22
2d
17
d5
02
05
14
eb
ed
fc
f0
ed
f6
e2
f3
ff
ff
13
06
0e
02
e2
d8
04
19
f2
0d
ed
11
00
ee
f5
fa
f9
f5
fa
e6
0f
f0
db
0d
f4
0f
fb
0a
07
e2
f0
f9
0e
e8
fd
f6
0b
fa
f7
f8
f8
f7
1e
dd
15
21
0d
e4
d5
e9
1f
ed
cf
fa
e5
07
fc
f8
f1
f6
e8
ed
f9
01
fb
0a
1a
1f
00
e0
18
25
fa
fb
e4
0a
22
08
02
ff
ff
f0
f8
f9
f3
f7
f9
fc
f9
1d
e5
ee
24
0e
07
e7
c9
e5
ed
e9
02
f9
f0
0e
f5
f2
fb
f8
f6
fc
f6
0f
e9
f5
f6
f8
26
1b
fc
16
fb
1c
fc
f8
e1
f6
fb
02
0c
e3
fa
fd
f8
fa
0d
13
fd
c8
e6
1c
f5
13
08
14
07
e4
f3
fc
02
fe
e8
17
f2
fd
fc
f7
f2
e4
e7
1a
28
fa
f2
1a
ff
13
fc
eb
00
23
f3
05
fb
fd
ed
f4
fd
ed
ff
ff
f4
12
07
e8
20
d0
e9
e7
15
fa
f0
18
03
f3
16
0a
0f
f0
f5
ff
f6
ff
f8
fe
24
ff
fd
e6
06
1e
10
01
0c
0e
32
f9
f4
e4
ff
fe
02
f7
f4
f9
fa
02
17
06
0a
00
da
01
13
0b
0d
01
09
12
f8
fb
0a
01
e9
fd
f1
f4
f7
fb
01
f4
e5
0e
fc
21
20
f9
10
ed
02
fa
15
06
fc
f7
f8
ee
12
f7
f1
fd
fa
fb
fe
1f
0e
f9
e6
fe
fc
10
ff
00
04
f1
f2
fd
ef
10
02
00
05
f6
ff
01
f7
03
08
10
0e
09
ef
f5
0f
0d
0b
f8
fa
11
08
08
0d
01
09
fd
f2
fb
01
01
fa
ec
1c
f2
e7
f9
0a
e8
03
0b
02
e9
18
fd
fa
ec
07
0b
ee
04
fa
fa
fe
1b
ea
fe
11
fb
10
01
0b
eb
0c
ec
f3
19
f0
ec
f8
f7
10
f5
fb
02
fb
f8
05
da
eb
df
f5
e3
eb
13
34
f1
f9
f4
f2
ea
16
fb
02
e9
09
fd
06
fc
02
0e
01
12
f4
14
f6
fd
16
f3
0e
f4
e3
1d
f9
fb
09
03
04
f9
01
fd
05
ff
06
de
d2
10
1e
08
0c
04
10
18
cf
0b
0d
d4
15
14
0f
0e
e2
06
f3
f5
f2
e4
db
e2
f7
18
fd
fd
16
f0
fc
ff
1b
f2
04
1a
15
1b
05
f0
fb
e9
f3
fc
eb
0c
13
e3
fe
ff
fb
03
04
02
09
35
24
0e
d6
02
08
12
f8
fa
fc
f5
f5
11
03
ec
f3
03
f3
fa
ed
ec
fb
f0
26
03
f6
15
0b
f2
f8
f2
f8
f7
f9
f6
10
c7
11
fd
04
02
23
0e
08
f8
eb
08
04
eb
f3
06
19
13
e5
0e
fa
fd
f6
96
0f
01
0d
11
10
08
fb
0e
f7
fe
02
12
f8
f4
ff
05
f3
f2
03
fa
04
ff
f3
1a
e3
c9
1d
35
0b
f3
fe
1b
24
f5
01
e4
c8
f0
00
1c
f2
fa
f2
f8
f3
dd
16
14
ee
f9
1a
dc
f8
09
fa
19
3c
20
12
ef
ed
04
01
f6
f3
f5
f1
01
ca
e9
f2
0e
0b
fa
0b
fb
e9
e8
ef
fc
01
fe
f2
fc
f7
fc
06
03
01
04
f8
e0
05
04
f8
13
f1
fb
ed
00
e3
07
14
ee
e0
0e
0d
0a
f4
fa
fb
f7
00
fc
fc
11
13
00
13
07
d6
fd
ec
ea
01
f8
03
1c
10
ee
01
ff
f3
f3
fd
fb
00
17
11
d8
e0
f0
fc
fa
f7
05
da
d7
0f
ec
ed
f8
f5
ed
00
01
f7
fa
fe
02
d2
0a
16
0e
f4
0f
1b
e9
01
fb
18
0c
dc
14
ec
f6
e5
05
fd
f5
f5
fe
fb
03
f8
0e
12
fa
ee
f0
ea
e6
09
1c
0c
1a
ef
f6
f8
0c
f9
f8
f3
fa
fd
ff
13
1c
15
0c
24
e5
01
1a
d2
e7
d3
ef
10
0a
07
f7
ff
f8
f8
f6
f2
f7
fd
ea
0c
18
f1
05
ff
f0
ed
e3
d0
c7
14
0b
19
f1
f1
12
f8
05
0e
f7
01
f4
1f
f0
15
11
e5
15
f5
37
f2
fb
c7
eb
ef
0a
fa
04
f6
0a
ff
f4
00
01
fa
cb
1f
16
08
31
e3
1e
d6
f3
dd
e0
f2
14
08
08
ff
07
e9
f8
00
f9
fd
f8
db
eb
02
fd
f9
02
ef
06
de
dd
eb
f7
0e
eb
f9
06
00
f4
ff
fb
fd
fe
fa
f5
c7
16
2f
00
22
0a
02
09
08
0e
04
e4
f2
fb
ff
fa
e3
f1
f7
fe
f7
fa
dc
fc
01
fa
de
06
01
fc
19
fe
18
14
1d
fc
fb
e5
e8
07
f2
f8
fa
f6
ed
0a
f9
fe
f1
07
19
1c
12
f5
2c
38
14
1f
fc
f2
f3
0a
00
f0
e8
f6
f6
02
be
e4
f3
fc
ed
0d
03
19
e1
03
3f
17
12
0a
fe
08
0c
f3
f8
f4
f6
f7
fc
dd
14
f8
f5
fd
24
05
09
fd
05
29
20
d9
18
00
ff
f3
ec
0c
f8
fa
fc
03
c3
eb
ed
ee
fe
f0
14
f5
ee
fa
f5
f9
15
07
03
fc
ee
e8
f4
f8
f5
fd
f9
f5
f2
ef
05
2d
da
05
02
f3
f9
06
09
fd
20
eb
ff
16
ee
f4
fb
f7
fd
f7
03
e8
0a
06
e3
23
04
fc
17
fc
ec
ec
ff
31
18
fb
ed
fd
02
f8
fe
00
fc
0d
f9
0f
f7
13
0f
1c
fe
eb
e7
13
de
04
fd
f2
ff
10
fc
fa
06
fc
01
fb
2a
e5
08
2a
f1
0d
fd
06
08
0e
13
fb
e8
c1
01
1e
1b
0c
ee
f6
f8
00
fe
09
02
fd
f8
17
12
f1
f3
f9
02
1c
1d
fe
f8
f9
ed
e7
f5
f2
f6
fb
00
01
f5
e8
f3
df
d6
ec
e0
12
00
01
00
e0
ed
f1
eb
ff
06
09
f5
f6
f7
fd
fd
06
c7
25
32
e0
19
fb
04
d7
f7
e8
31
13
11
0e
ec
fd
e9
f4
ea
fe
fa
f6
df
11
fc
ff
db
10
03
29
08
f1
f7
17
f1
f1
e6
f8
f5
f3
ff
f5
fb
ff
03
0e
e9
fa
06
0b
10
f8
01
f1
f3
f2
23
f8
32
13
14
ec
1b
08
f7
fc
fd
fe
e7
35
1e
f5
f5
e5
0a
ff
02
fd
e8
11
1a
e4
f5
f5
fc
f3
f6
fc
fc
fe
f4
17
e9
07
ce
f7
ef
f4
e8
02
08
08
2b
0c
0e
17
27
1f
ff
24
14
10
04
02
0f
ec
c9
ee
17
17
f2
28
2b
03
11
19
10
01
0c
17
fc
fd
eb
fd
fb
fa
27
10
f0
ee
c4
e0
ef
08
02
25
1b
e8
e0
ea
09
0c
19
07
f4
0b
dd
0d
ff
0b
12
f6
07
e2
0e
11
f8
ca
10
06
e2
06
1e
0c
24
11
fb
03
02
02
f4
02
10
fb
0f
fe
b0
06
fe
03
f4
06
1e
08
08
fa
f8
14
1f
fd
18
00
0c
f5
ed
0b
06
16
e0
fa
01
08
de
fe
05
07
1c
ef
fd
f1
0f
fd
02
f6
04
01
f5
0c
fe
f6
44
1a
02
e0
e2
ff
0b
fc
07
10
eb
f5
00
04
09
05
14
ff
f7
f7
00
01
ee
1f
e4
16
17
00
ed
fe
0a
ee
03
0a
f9
0a
13
12
0d
18
f7
0a
1a
0a
09
e1
e7
c5
0c
04
12
ee
f4
f9
f7
f3
0e
08
04
07
12
f8
07
e5
07
15
fe
04
db
bf
0e
da
2c
1c
02
f8
03
00
0b
08
f4
de
04
1a
f1
0d
01
f8
0b
f1
fb
08
d8
d8
e5
ea
0c
e7
10
20
f4
29
37
f3
fb
03
0e
ff
fc
02
0c
fb
03
0d
ed
d7
05
03
09
ff
01
eb
02
dd
13
1a
fb
f5
fe
16
02
fc
fe
09
01
f8
f0
01
f2
dc
e3
1f
01
18
07
21
17
fb
0b
03
00
f1
16
f1
f5
ed
ff
00
f5
03
39
e9
f1
0f
19
01
06
fb
0e
e5
e7
00
f4
1d
fe
e4
ea
ee
e7
e9
01
02
0a
15
11
dc
03
d2
f2
0c
e8
e4
f3
0b
0c
21
09
25
1d
21
0f
1a
18
00
0d
f9
f8
0e
02
fe
15
0b
04
f8
f0
ee
00
0b
1d
eb
dd
05
f9
01
0b
f7
01
ff
fc
09
ac
e7
cc
fd
21
fd
07
0a
11
28
f7
f8
fc
12
01
f0
0e
07
f9
0c
fc
0f
14
e4
d8
d1
f4
0f
e2
db
0d
18
23
ee
06
03
17
0a
09
f3
08
f1
0d
f7
00
e2
04
ff
02
f2
12
08
16
fd
13
11
fc
02
0b
04
fa
00
10
f4
01
02
fd
02
00
df
0d
0c
05
f8
f1
f3
03
0d
11
15
05
0d
02
03
fc
f2
00
0a
08
06
fc
0c
0a
f6
f8
ee
0a
01
06
ee
1a
0e
f4
f7
f9
f8
1b
0b
06
03
01
fa
fb
03
09
19
ea
dc
ee
10
f6
f4
f7
05
13
f9
05
ff
14
11
ff
1d
13
06
f5
fd
0b
01
ad
f3
f0
01
1f
f0
f2
02
fd
02
14
12
05
0f
26
02
19
14
f0
0f
05
01
1a
16
d9
e6
f1
f1
02
f3
ec
00
0a
e3
fa
11
f9
09
23
00
1c
0c
0d
0b
f8
0f
26
10
27
fa
f3
fb
d2
00
02
18
f2
19
00
0b
00
0c
0b
0b
18
09
17
0b
0b
d2
f8
f1
ee
04
0d
ef
14
10
11
fe
11
00
04
f3
fc
02
ef
11
fd
f8
0b
1c
f8
f6
19
f1
10
f3
f6
06
fc
0d
ef
02
f8
15
09
06
0e
19
fe
09
07
fd
28
eb
e8
dc
0f
ff
e8
fb
0b
f0
fa
05
05
05
fd
0a
ff
f7
f2
06
fc
fb
02
0d
03
10
17
0d
f6
e0
04
10
11
0a
e7
18
ee
f3
fe
f1
f7
ee
09
05
0d
0e
05
d3
e7
fa
1a
2b
0d
05
20
17
e9
07
07
e3
28
0f
f2
ef
ed
f8
fc
ff
0b
03
c8
f4
03
06
0e
e9
08
11
0f
0f
12
fe
17
1d
1e
f7
f5
14
1d
f6
03
0c
11
f5
01
bb
ee
fa
fa
f3
11
00
12
13
0f
e2
d8
16
08
e9
f2
f8
04
f1
fa
08
0e
f3
08
2b
16
f1
11
f6
07
f8
15
fb
0a
08
16
e1
2b
ee
07
05
06
09
ff
e7
ef
00
05
1f
fc
17
10
05
fe
0f
ea
e7
06
18
08
e4
e4
09
01
ff
09
a8
0a
0b
f9
05
11
f9
0f
f8
0b
eb
1a
1c
0a
0f
05
07
f3
ec
f7
02
f9
01
fd
00
de
bd
f4
13
12
0a
fa
1f
25
fd
01
fc
03
15
fc
07
ee
fd
f7
f1
f8
10
fb
fc
f0
e9
fb
f1
f2
09
01
1f
2c
03
ff
f9
09
1d
ff
f9
00
f5
f2
fa
03
10
19
1e
05
fa
03
03
e7
ee
f3
07
01
eb
e0
fe
04
fc
06
0a
fe
03
f6
f0
fb
01
f4
fe
fa
e8
f5
13
f9
09
1e
e3
fc
06
12
02
f1
fc
fa
01
ff
08
05
ec
11
06
f7
fd
f5
ea
01
fd
05
06
fe
1d
ed
f1
e8
ea
08
e0
0d
07
ff
14
17
dc
f8
03
ec
f6
ef
ff
fb
ed
f1
ff
fa
26
0f
fd
05
24
0a
04
07
01
ed
19
df
02
19
01
04
ec
f6
12
26
f9
05
0e
f8
10
34
14
11
11
05
0b
fe
f8
15
15
f7
0f
f4
fb
00
f4
04
26
fd
0f
10
fc
f9
f8
ef
ee
fe
04
06
00
16
16
09
01
1d
f5
f0
f0
eb
ef
08
f7
06
00
15
07
f5
07
02
0f
f1
04
02
fb
f6
f9
03
ec
06
05
fd
f0
e5
eb
01
e3
f7
ed
e6
f4
f6
f2
1e
fd
ff
ee
16
03
f9
ff
03
fd
13
13
03
fc
e2
f0
03
ef
f7
02
fc
f9
19
fe
00
1d
0f
f6
19
09
ee
21
fc
18
de
ff
ee
e6
07
00
22
0e
08
f6
02
02
20
0a
0b
06
e9
02
0f
06
f5
05
fd
02
f7
e5
fa
ed
f5
de
e0
fa
06
f9
10
03
ff
00
f2
09
d6
c9
0b
e2
1c
eb
1e
f2
19
08
1a
05
12
15
00
f4
ff
f2
02
0c
fe
05
eb
e9
0f
05
fb
04
e8
f1
00
1c
12
04
01
ff
05
11
06
29
0b
f9
17
fa
ec
04
f2
07
0f
e5
f8
da
fc
fa
14
13
00
fd
01
f9
15
10
19
07
fd
fe
fa
fa
e8
e7
10
f6
d9
f6
e6
17
04
0d
21
16
07
06
19
03
11
fa
04
f3
f0
f3
ec
fc
07
f3
fe
07
f1
fc
fa
fd
11
24
26
fc
ff
ee
05
09
1d
0d
0a
f6
0a
04
ed
10
0d
02
f0
fa
00
02
f5
ef
d8
00
32
17
1a
fe
01
e8
fe
fa
fa
f6
f5
fb
c9
04
11
02
ea
fb
0b
1a
01
13
1f
04
04
0d
00
fa
fa
f5
0b
02
06
01
01
0e
0a
f7
f8
01
17
f3
0b
fe
18
fa
ff
0c
09
0c
0c
00
10
e7
f1
0d
00
05
ef
f4
f6
11
28
f6
19
00
13
02
d4
ed
eb
ee
ee
06
00
f7
02
f4
0d
02
2b
df
e2
f6
f8
09
08
0d
0f
fa
18
ff
f9
ff
fe
0b
ef
ef
cb
f1
ee
03
0f
07
ca
f8
f1
f8
04
00
ea
11
fb
15
2e
19
08
04
1b
f8
12
0e
fe
0d
09
03
0a
d2
ff
1e
1b
f8
f3
ff
ef
1b
dc
d3
f8
0b
fe
0f
fa
12
f4
f4
06
fe
0c
09
f3
fe
0d
d1
ff
f9
0f
e1
ed
f8
23
1d
26
0b
05
0d
06
06
f8
03
fa
fa
ee
13
e5
d1
f4
fd
0f
14
0f
10
ff
f5
e4
ed
ee
f6
00
f6
00
f9
eb
f9
02
0a
ec
f8
01
03
f9
fd
e5
f1
f4
02
0d
f7
06
29
06
0d
1a
38
13
12
15
11
0b
17
e2
ec
d1
e8
15
f1
12
ed
11
06
18
e8
05
04
11
ed
05
04
04
01
fc
1e
e1
fb
dc
d3
e4
f2
eb
e2
f0
f4
f7
0b
10
20
fc
19
fa
0b
06
15
07
f9
de
e8
e7
08
d1
fe
0b
f4
fb
fd
0f
ff
f5
28
06
f8
02
ff
e4
fb
09
04
08
de
09
ed
da
e4
ef
1d
0c
f2
0f
f6
00
01
fe
0d
0b
01
e6
01
f8
fd
23
04
e9
e6
de
df
c5
e3
09
0b
09
ef
ff
ec
e7
12
f0
0b
1a
03
03
10
fe
0e
fb
00
dd
01
c7
e9
f2
f5
02
fa
f2
fb
05
fe
02
2b
e9
17
09
ff
1f
00
0a
fa
03
1e
eb
06
0e
f7
e8
07
01
01
09
f8
f1
1d
03
09
f4
fa
f7
e5
09
01
06
02
fe
ec
df
f4
08
fe
f9
fb
05
fd
fd
17
fa
12
04
2d
10
00
fd
f7
ec
0f
fe
ff
f3
e4
ff
1a
1c
0b
f2
00
fd
01
1d
0b
08
0b
1a
11
03
07
10
fd
22
e2
f2
c0
dc
e4
1e
06
e6
f3
ff
fd
f5
10
0d
f6
10
09
ff
e9
05
10
f5
09
29
dd
ff
cb
ef
ff
07
12
f4
f1
06
06
01
ee
07
ff
05
06
12
fc
fe
0c
06
ed
f1
e9
ff
e2
e9
11
f8
f6
07
04
06
f1
1b
f7
0f
ee
0a
fc
f7
06
08
ff
fa
e4
f2
e9
01
ea
e3
f6
0b
07
15
fd
06
f4
09
08
00
f7
0f
16
02
07
05
08
c6
ed
fd
1a
0f
fc
f2
14
08
fc
ff
15
f0
1a
f8
fa
fb
e8
f3
e6
f8
f7
00
ef
ee
de
f1
25
28
1b
02
f5
02
fb
fe
14
ff
f9
ee
e7
e6
f6
f4
ee
0d
ea
f1
d1
e1
e2
f4
f6
ea
fd
00
03
f8
fe
09
0a
31
00
20
0c
23
16
09
12
01
f8
fc
f4
13
eb
e6
04
11
0c
0a
0f
06
e3
ea
ee
03
ff
16
09
09
0e
04
ee
e2
05
f4
e6
e5
2e
11
ed
fe
fc
f8
ff
0e
1f
f3
02
08
fc
05
f5
fa
04
06
d5
e3
f9
14
f9
fe
18
05
05
fe
e9
15
04
3d
19
16
01
fb
07
f9
08
f5
22
05
f9
ef
e6
0e
03
04
f2
fd
08
03
16
1d
fe
f8
05
17
06
00
0f
f4
14
ed
f1
fa
11
f9
ed
fe
fb
09
fc
0e
fa
0d
1e
19
15
07
f2
10
fc
04
01
09
ef
f1
e9
ea
f7
08
fd
07
fd
04
f7
fe
f0
f4
fe
06
02
0f
06
13
fd
fa
0f
fb
fb
dd
ed
db
06
13
f9
f9
fe
f8
08
02
2b
0b
f4
ff
1f
fd
10
00
f8
1e
fe
da
d6
ea
ec
f2
00
0a
0e
ed
16
f7
f8
f9
0c
19
0b
fc
20
0c
0a
0b
02
03
e6
e5
e3
00
fd
f4
f0
03
02
0d
fb
ff
0c
f2
06
1b
10
1d
1a
0e
fc
03
f5
ff
e0
fc
fa
f6
f2
0e
05
fe
10
f3
07
17
11
15
1f
21
19
16
05
0d
ed
ee
d5
f4
0d
06
f4
fc
fb
fe
fc
fd
f3
f9
f6
16
fe
09
10
ed
13
eb
02
0e
07
f8
f2
fc
f5
f7
ed
03
ff
fb
06
fe
09
fe
ed
07
04
01
13
0a
fd
10
f8
0f
f9
f2
f7
c3
0c
39
fa
f7
ff
00
09
00
20
17
07
ff
16
fc
fe
02
e7
ff
ed
ef
ed
15
19
05
f4
28
19
12
06
fa
11
21
0f
10
10
11
ff
fd
f2
08
05
e9
e0
03
11
df
f1
17
0d
fc
f3
03
f6
f9
01
0d
fb
d7
f4
02
ed
ee
0b
02
d2
da
f9
07
f1
ea
ee
02
06
03
09
ea
f0
0d
0f
13
f8
f6
16
0b
06
fd
16
26
e2
f8
e7
eb
ea
06
f9
f4
f9
f6
0c
01
f3
e0
f5
08
eb
fd
06
fd
03
fe
e9
06
ff
00
08
15
20
0d
0d
05
fb
fe
0d
f4
07
ef
1a
2d
0d
f8
fd
fd
0c
e9
ea
df
09
e9
0f
ec
f6
f7
ef
f7
05
ef
0b
12
f2
f6
e7
ea
05
fe
01
09
02
ed
f5
e0
dc
f6
eb
06
0b
01
0d
07
0a
f8
02
ff
f1
ec
f2
fe
0c
04
f4
01
e0
03
dd
0b
f1
f6
04
01
fe
00
0d
02
01
20
f5
fe
fb
f7
03
f7
03
14
1c
c7
ee
f2
e9
03
04
fd
05
04
01
08
fc
eb
e7
fc
15
05
0b
0d
03
00
fc
35
0d
10
fb
f9
f4
ed
f5
fc
fa
04
0a
03
e9
e4
f4
f7
fa
04
0b
05
12
0b
04
fb
fe
fd
ea
f7
fd
06
05
04
17
04
f4
10
f7
f1
01
02
06
f9
0f
05
0c
14
dc
ff
f6
e8
f8
fc
02
11
02
15
ef
0b
12
03
06
fd
fc
1a
0a
0c
03
fd
fd
1c
05
fb
04
e7
19
1e
09
fb
08
f4
0c
02
f6
3a
03
12
22
17
0c
02
06
1d
03
e0
db
05
0b
02
0b
fd
11
09
f3
02
04
e5
26
1d
29
11
12
06
e9
14
ed
f2
fb
ef
e3
02
04
0a
ff
12
01
fb
01
20
14
17
f5
04
fa
0a
fe
02
f9
fa
fd
d1
fb
15
ee
e8
f8
fd
f2
0d
fa
fb
e1
ef
ea
08
03
1b
17
fc
04
14
f8
f0
e5
08
ff
ed
e8
ff
19
fa
08
0b
fc
f4
e7
f8
15
fe
06
0b
09
04
0f
f4
11
e8
ec
fa
f9
f6
ee
f6
e5
f4
fe
08
05
fc
11
0c
09
11
fe
f9
09
f8
17
fb
fd
e7
ff
e7
e8
ff
f9
fa
0e
06
ff
f6
13
14
0e
06
22
0a
0a
0b
f4
0f
07
0c
fe
fd
fc
ef
f9
ff
fb
02
00
00
f2
e8
f1
fb
08
1d
16
0a
0d
03
f4
17
b9
e2
b2
18
06
f2
ea
e9
f0
f7
12
1f
0a
15
ed
14
f9
08
17
f5
08
27
eb
02
ec
d8
0c
f8
00
ff
0d
00
fd
09
fe
12
09
0e
17
0f
14
1f
f8
11
e4
de
e9
fa
00
ef
fc
07
05
0e
08
f0
ea
f1
fb
09
13
11
0c
0c
ed
04
09
04
19
11
05
e8
f5
0e
f6
fc
fe
fc
f2
f9
08
12
1a
e8
f3
0d
0f
02
0c
12
0f
ef
f2
f2
e2
f9
10
f1
ff
f9
ff
ec
03
f4
f1
0d
fd
1a
0c
0d
12
ff
02
1d
0d
05
ef
ee
00
fe
fc
fe
f9
f3
05
ff
f4
13
fb
f3
f3
00
fc
02
0a
fb
ec
d3
fc
09
e5
fd
01
08
1d
06
19
00
0a
0f
16
1d
01
ff
16
fc
00
03
18
0f
04
ef
ea
05
0e
09
04
04
f7
f9
f5
05
15
03
0d
15
0d
11
06
fb
fb
fe
ec
04
f4
06
f0
04
e7
06
03
fc
02
04
f9
0e
0c
f5
ed
f3
07
ef
fd
f6
00
df
e3
d3
de
b2
00
31
10
01
04
f8
fa
0b
29
12
f1
ef
f3
e2
fe
03
fc
00
07
da
e8
f1
df
e9
f7
00
0b
ff
19
08
08
18
02
27
0a
0f
1a
16
02
0d
0b
0a
f1
f2
fc
15
05
1f
0d
f3
10
fc
ef
11
14
13
02
24
05
fc
f6
f1
eb
12
f4
17
dd
e9
ae
07
01
e7
e4
f5
ec
07
f9
0c
fb
10
1b
30
0a
13
14
f7
18
ff
f5
ec
e1
03
1b
17
09
08
03
fa
00
fb
f7
e4
05
f1
fb
fa
f5
e1
f0
f5
0c
fb
fa
fd
f6
eb
fd
fe
fb
e7
0e
02
f4
fe
f9
05
12
17
34
1a
1c
22
fa
f2
e2
e7
ff
10
fe
02
0c
0d
00
05
f5
fd
fe
f5
0b
18
00
02
fb
f2
fa
f5
00
00
00
00
00
00
00
00
00
00
00
00
00
00
00
00
00
00
00
00
00
00
00
00
00
00
00
00
00
00
00
00
00
00
00
00
00
00
00
00
00
00
00
00
00
00
00
00
00
00
00
00
00
00
00
00
00
00
00
00
00
00
00
00
00
00
00
00
00
00
00
00
00
00
00
00
00
00
00
00
00
00
00
00
00
00
00
00
00
00
00
00
00
00
00
00
00
00
00
00
00
00
00
00
00
00
00
00
00
00
00
00
00
00
00
00
00
00
00
00
00
00
00
00
00
00
00
00
00
00
00
00
00
00
00
00
00
00
00
00
00
00
00
00
00
00
00
00
00
00
00
00
00
00
00
00
00
00
00
00
00
00
00
00
00
00
00
00
00
00
00
00
00
00
00
00
00
00
00
00
00
00
00
00
00
00
00
00
00
00
00
00
00
00
00
00
00
00
00
00
00
00
00
00
00
00
00
00
00
00
00
00
00
00
00
00
00
00
00
00
00
00
00
00
00
00
00
00
00
00
00
00
00
00
00
00
00
00
00
00
00
00
00
00
00
00
00
00
00
00
00
00
00
00
00
00
00
00
00
00
00
00
00
00
00
00
00
00
00
00
00
00
00
00
00
00
00
00
00
00
00
00
00
00
00
00
00
00
00
00
00
00
00
00
00
00
00
00
00
00
00
00
00
00
00
00
00
00
00
00
00
00
00
00
00
00
00
00
00
00
00
00
00
00
00
00
00
00
00
00
00
00
00
00
00
00
00
00
00
00
00
00
00
00
00
00
00
00
00
00
00
00
00
00
00
00
00
00
00
00
00
00
00
00
00
00
00
00
00
00
00
00
00
00
00
00
00
00
00
00
00
00
00
00
00
00
00
00
00
00
00
00
00
00
00
00
00
00
00
00
00
00
00
00
00
00
00
00
00
00
00
00
00
00
00
00
00
00
00
00
00
00
00
00
00
00
00
00
00
00
00
00
00
00
00
00
00
00
00
00
00
00
00
00
00
00
00
00
00
00
00
00
00
00
00
00
00
00
00
00
00
00
00
00
00
00
00
00
00
00
00
00
00
00
00
00
00
00
00
00
00
00
00
00
00
00
00
00
00
00
00
00
00
00
00
00
00
00
00
00
00
00
00
00
00
00
00
00
00
00
00
00
00
00
00
00
00
00
00
00
00
00
00
00
00
00
00
00
00
00
00
00
00
00
00
00
00
00
00
00
00
00
00
00
00
00
00
00
00
00
00
00
00
00
00
00
00
00
00
00
00
00
00
00
00
00
00
00
00
00
00
00
00
00
00
00
00
00
00
00
00
00
00
00
00
00
00
00
00
00
00
00
00
00
00
00
00
00
00
00
00
00
00
00
00
00
00
00
00
00
00
00
00
00
00
00
00
00
00
00
00
00
00
00
00
00
00
00
00
00
00
00
00
00
00
00
00
00
00
00
00
00
00
00
00
00
00
00
00
00
00
00
00
00
00
00
00
00
00
00
00
00
00
00
00
00
00
00
00
00
00
00
00
00
00
00
00
00
00
00
00
00
00
00
00
00
00
00
00
00
00
00
00
00
00
00
00
00
00
00
00
00
00
00
00
00
00
00
00
00
00
00
00
00
00
00
00
00
00
00
00
00
00
00
00
00
00
00
00
00
00
00
00
00
00
00
00
00
00
00
00
00
00
00
00
00
00
00
00
00
00
00
00
00
00
00
00
00
00
00
00
00
00
00
00
00
00
00
00
00
00
00
00
00
00
00
00
00
00
00
00
00
00
00
00
00
00
00
00
00
00
00
00
00
00
00
00
00
00
00
00
00
00
00
00
00
00
00
00
00
00
00
00
00
00
00
00
00
00
00
00
00
00
00
00
00
00
00
00
00
00
00
00
00
00
00
00
00
00
00
00
00
00
00
00
00
00
00
00
00
00
00
00
00
00
00
00
00
00
00
00
00
00
00
00
00
00
00
00
00
00
00
00
00
00
00
00
00
00
00
00
00
00
00
00
00
00
00
00
00
00
00
00
00
00
00
00
00
00
00
00
00
00
00
00
00
00
00
00
00
00
00
00
00
00
00
00
00
00
00
00
00
00
00
00
00
00
00
00
00
00
00
00
00
00
00
00
00
00
00
00
00
00
00
00
00
00
00
00
00
00
00
00
00
00
00
00
00
00
00
00
00
00
00
00
00
00
00
00
00
00
00
00
00
00
00
00
00
00
00
00
00
00
00
00
00
00
00
00
00
00
00
00
00
00
00
00
00
00
00
00
00
00
00
00
00
00
00
00
00
00
00
00
00
00
00
00
00
00
00
00
00
00
00
00
00
00
00
00
00
00
00
00
00
00
00
00
00
00
00
00
00
00
00
00
00
00
00
00
00
00
00
00
00
00
00
00
00
00
00
00
00
00
00
00
00
00
00
00
00
00
00
00
00
00
00
00
00
00
00
00
00
00
00
00
00
00
00
00
00
00
00
00
00
00
00
00
00
00
00
00
00
00
00
00
00
00
00
00
00
00
00
00
00
00
00
00
00
00
00
00
00
00
00
00
00
00
00
00
00
00
00
00
00
00
00
00
00
00
00
00
00
00
00
00
00
00
00
00
00
00
00
00
00
00
00
00
00
00
00
00
00
00
00
00
00
00
00
00
00
00
00
00
00
00
00
00
00
00
00
00
00
00
00
00
00
00
00
00
00
00
00
00
00
00
00
00
00
00
00
00
00
00
00
00
00
00
00
00
00
00
00
00
00
00
00
00
00
00
00
00
00
00
00
00
00
00
00
00
00
00
00
00
00
00
00
00
00
00
00
00
00
00
00
00
00
00
00
00
00
00
00
00
00
00
00
00
00
00
00
00
00
00
00
00
00
00
00
00
00
00
00
00
00
00
00
00
00
00
00
00
00
00
00
00
00
00
00
00
00
00
00
00
00
00
00
00
00
00
00
00
00
00
00
00
00
00
00
00
00
00
00
00
00
00
00
00
00
00
00
00
00
00
00
00
00
00
00
00
00
00
00
00
00
00
00
00
00
00
00
00
00
00
00
00
00
00
00
00
00
00
00
00
00
00
00
00
00
00
00
00
00
00
00
00
00
00
00
00
00
00
00
00
00
00
00
00
00
00
00
00
00
00
00
00
00
00
00
00
00
00
00
00
00
00
00
00
00
00
00
00
00
00
00
00
00
00
00
00
00
00
00
00
00
00
00
00
00
00
00
00
00
00
00
00
00
00
00
00
00
00
00
00
00
00
00
00
00
00
00
00
00
00
00
00
00
00
00
00
00
00
00
00
00
00
00
00
00
00
00
00
00
00
00
00
00
00
00
00
00
00
00
00
ea
02
d8
f2
0c
04
02
e9
02
e1
1c
e7
f7
26
0c
18
ff
10
02
1c
f4
f7
f1
fc
e6
d3
ea
15
0b
0a
3c
08
fb
23
09
08
f8
e9
07
12
f1
fb
18
07
24
fe
df
f2
c2
cb
f8
0d
14
2a
10
eb
e4
0f
f8
e9
00
08
00
06
f2
f8
05
f8
f9
d9
fc
da
03
e7
ed
f7
0d
04
df
1e
0a
06
f3
03
f9
0e
07
08
02
0c
03
ff
ee
fa
b9
06
1c
12
0b
ea
33
f8
07
db
f3
19
f0
00
13
0a
17
fa
f4
07
04
10
ee
fc
f4
ff
fb
ec
25
e3
12
de
0e
ed
0d
ef
04
17
fc
00
06
0d
fd
0a
2e
0d
eb
01
02
f8
fb
0e
15
08
fc
f5
0c
1b
18
25
23
10
ff
f2
f2
fb
f8
0a
d1
e6
08
00
fa
04
01
f1
f3
03
fc
0d
0f
1c
20
0e
ff
ff
0d
06
0e
0b
d3
ca
00
09
32
08
07
e9
fa
f8
14
31
19
ea
13
0d
07
f7
06
18
08
04
f2
e7
10
b8
ff
12
15
16
fe
04
fa
03
f6
d8
fb
f0
f2
13
10
f9
0a
f7
f2
01
f0
ed
dd
d5
fe
0d
ff
28
f6
08
16
e5
fc
f6
fd
17
1e
f3
05
0d
0a
05
de
de
15
05
26
02
e8
eb
1a
ea
10
19
fa
e4
f6
08
f6
f9
f0
01
06
f5
f0
fe
d3
ea
e7
1b
fd
f1
f1
f8
0a
f8
24
09
0b
08
13
06
fa
f3
f7
f6
05
fd
0c
f8
d9
d8
f9
1d
1e
fc
f0
01
f3
18
1a
21
fc
e7
04
fb
ed
f1
0b
fc
02
0d
08
e3
00
f6
05
08
fa
fa
eb
f4
fc
1b
f7
f1
1d
08
19
14
11
06
0b
f1
fd
fd
07
03
37
fc
f3
0c
f3
df
ff
fb
ff
e8
ef
fb
07
03
13
fe
05
09
fd
0e
d0
00
d8
e1
04
07
ff
0c
01
13
01
17
ec
ef
eb
fa
16
06
02
04
f6
0e
1a
d0
e5
f5
05
f9
df
ed
0a
21
26
f7
1d
f8
1c
1b
15
11
03
fb
15
0c
07
f4
09
f6
ea
e6
12
03
04
02
10
01
04
fb
ec
00
e5
fe
ff
f0
ec
fc
f3
01
ec
eb
0e
01
16
fa
f2
ed
11
fd
11
1e
ef
03
1b
15
06
f8
04
fe
08
0b
0b
e8
f3
f7
08
08
0a
f1
05
0e
1c
0d
09
f7
05
f5
f5
02
0f
18
18
ee
f6
fa
ff
08
f6
ea
e6
15
06
01
10
09
0e
fd
04
0f
17
eb
f2
13
15
12
fc
f0
08
12
d0
f9
f7
1c
f4
ef
fe
15
f8
ea
0b
05
ec
0d
11
f5
21
0d
ee
0e
04
f1
0f
fc
f7
ff
1b
06
17
f2
ff
14
ee
e7
f9
07
ff
08
0f
14
25
1f
0e
02
f2
03
19
08
17
19
fa
ec
e6
ff
00
15
16
03
f1
1a
ff
17
28
1f
23
14
07
09
08
e7
09
1c
00
fe
fb
fa
0a
0b
0a
fa
13
ed
fb
fc
05
14
02
0a
f7
06
01
fe
06
f8
16
f1
0a
01
ff
05
02
24
ec
ed
d5
fe
1c
0c
1c
18
0e
19
0c
f6
0c
f1
ed
cb
eb
10
05
0b
11
00
ed
01
08
19
18
0b
02
0f
ff
0b
ff
ff
01
18
f8
03
0d
00
00
e3
07
fc
0f
00
02
13
f1
19
0d
1c
17
f5
16
03
0f
09
09
e4
10
ee
fa
01
10
e4
30
13
fd
0f
fb
f0
06
e7
e8
08
f6
e2
f3
05
15
c8
d5
16
ff
1c
f5
e1
dd
11
14
16
14
f7
05
11
f1
f2
f8
01
00
07
f0
12
06
de
02
cc
ef
f5
fc
0a
f4
0f
0e
05
fd
ff
de
e6
f1
f4
04
fe
05
03
fd
03
fa
d8
fb
01
e6
eb
f8
f3
17
f7
10
0a
ff
f8
1a
06
31
02
fc
16
03
01
df
d6
f3
14
f7
15
fd
05
fa
0d
13
0b
e0
e5
f8
f4
fd
02
f3
07
f7
0a
f7
c5
ff
06
ff
fc
09
07
0f
fb
0b
f7
eb
ee
fa
f6
f2
05
fd
02
f3
18
f6
fa
de
ef
ee
dd
f8
03
14
09
f1
28
16
10
02
f6
0b
f4
00
02
f9
fd
fd
f6
02
13
e9
0e
f4
f9
f2
d8
16
1c
04
17
15
ee
f6
f0
ee
f9
12
10
fc
03
fb
fb
f7
0d
10
04
0a
ff
fb
04
f3
f5
04
08
f0
ec
e3
ef
f3
ea
f9
00
01
02
f7
fa
01
f6
f3
f7
01
0c
fe
16
d2
07
09
f4
fc
f8
ef
09
16
ff
fe
13
00
05
00
02
06
0a
11
0f
ec
f1
12
07
29
18
fb
10
04
00
ff
f9
11
f9
0e
01
05
22
0b
f0
fc
15
0c
ff
04
04
00
ed
0b
fb
f9
fc
18
04
1c
27
1c
12
fe
00
06
0e
cf
e7
0b
f3
09
f5
0c
0e
f2
fa
ed
fc
f1
16
30
33
1f
0b
f8
f3
fa
f3
fa
04
ea
dd
08
0a
f8
e1
09
11
0e
16
f9
0d
06
00
f4
f9
09
fc
09
ff
f6
fe
fc
06
28
f1
fb
e3
05
20
13
fa
f6
ee
ff
f2
e1
0e
0b
19
f4
09
04
fe
e9
f2
ff
0a
f6
e7
fb
ea
0b
f8
2d
d8
ed
ff
f7
fa
f5
08
25
0a
1d
fa
0f
1c
f9
fa
09
fc
f9
17
e6
05
f2
10
0b
f5
05
11
0b
0b
1a
08
04
09
03
dd
06
0b
e7
12
e2
1c
eb
0b
03
06
fe
e7
ff
19
0e
0a
0e
11
16
07
06
fc
f7
18
08
01
fb
ff
f6
04
fc
e1
0c
ef
f9
e7
e0
fb
f8
fc
19
13
10
13
ff
04
ef
b8
e9
ce
43
0e
2e
09
e2
f5
db
0e
e2
ec
03
fb
00
e4
f5
08
f0
f6
f0
f4
0c
08
e3
0a
f9
05
f6
09
ea
fd
f7
09
19
12
fe
20
0f
11
10
f2
e7
e4
f7
0f
0e
05
01
d5
03
1a
fb
1c
05
03
da
f7
fc
0a
23
11
0d
eb
f3
04
e4
1c
1e
ff
e0
f6
dd
f8
24
e8
ed
0c
f7
f7
0a
ee
ea
fa
ff
fe
03
07
fa
f4
04
f8
ee
07
21
00
30
22
fb
06
1a
ee
f5
f4
0b
0b
29
07
fe
fe
ff
fa
e5
05
14
09
02
fc
e3
f4
0a
df
e1
fb
f0
f6
f8
f7
f6
e4
f6
f8
f2
f0
f4
f4
ca
13
08
11
06
fa
03
17
15
13
24
fd
0d
25
07
fd
0e
fa
03
0c
03
0a
06
15
03
e7
01
0e
04
ff
04
fe
f5
0a
15
17
09
1c
24
1e
10
f7
0f
0f
fe
03
fc
fe
ec
15
f5
16
f1
0a
04
33
ee
00
f8
09
e6
f2
08
f8
01
fc
f8
0d
db
fa
f4
d8
d8
13
21
27
09
e2
14
00
07
fb
f0
de
e8
eb
e6
f3
f5
f5
02
ed
ef
f6
e0
09
ff
02
f6
20
e9
e4
2c
00
f3
0a
11
05
2b
ff
fd
0b
0d
00
07
ee
fc
09
03
00
e2
fa
0e
30
02
fd
f5
13
fc
07
29
2e
03
03
f7
ff
09
f2
f4
e9
f1
b9
26
02
17
f0
06
ed
f8
11
06
e9
08
14
f9
f7
fe
f1
e6
04
05
05
eb
c4
f3
fe
11
0a
07
f9
ff
ff
fb
06
f4
f1
03
0d
13
02
f1
f8
f7
0e
f4
0b
13
13
fb
fa
f9
f0
fe
fd
31
04
f6
1e
04
11
1d
28
2f
30
05
02
12
17
f9
18
e8
05
f0
db
f6
ef
fe
0c
07
00
06
05
0e
06
03
09
04
01
f4
06
13
f1
2b
f4
ff
ed
11
07
fa
df
f6
e7
ee
fe
d2
f4
f0
f4
04
ff
f3
ff
d7
da
08
fe
01
f3
14
03
f0
e1
03
e9
00
fc
0f
15
f6
ff
eb
e3
09
15
ff
ec
22
e7
1b
1a
f2
f9
23
17
12
0c
29
0d
04
d7
e4
ed
f5
f7
fc
f3
04
11
fb
f7
e0
15
f7
d3
02
08
02
fc
01
e1
ec
f1
0a
ef
19
08
f2
ff
02
fa
f3
00
0a
0c
3c
ee
07
ed
04
f7
01
ea
11
10
07
fb
d8
07
e9
ff
eb
fa
06
01
03
e1
20
e5
08
03
0d
fa
f5
08
05
fe
09
11
08
fb
05
f7
f3
02
fa
02
02
fa
e2
c7
fd
0b
1c
c6
c1
fb
0a
09
0e
0f
ee
ea
f4
f3
fa
00
0f
ff
f8
08
34
d9
08
0c
25
17
13
00
f5
e3
15
06
f5
f4
fb
0e
f1
04
f5
f9
f9
fc
08
f7
f1
1e
0b
fe
d5
09
e6
df
c5
ff
f3
e1
e8
06
30
fb
f5
ef
ec
f6
01
09
1d
2f
f4
26
e9
12
fb
11
0c
d5
f6
f4
05
13
e9
f4
0c
f0
fc
01
f9
ff
1f
f6
e7
16
e3
f9
fa
dc
f3
e6
ef
ee
fb
00
0a
08
03
ec
00
e9
f1
02
08
17
0f
24
1b
02
c0
e6
e3
fc
e5
0f
08
f3
18
0e
0c
df
e4
fb
f3
06
0a
ff
05
01
dc
0c
17
ce
d5
ce
f3
e4
e3
0a
02
f3
05
19
22
04
f4
fd
f7
fd
fb
09
db
05
e8
f9
fc
1a
18
fc
db
d1
04
27
f1
d5
e5
2a
2c
ec
fa
e6
00
0a
09
fd
e4
23
16
1d
d6
e3
d7
e9
ff
03
fd
f8
07
de
14
f6
e6
f0
f9
f3
ff
fe
01
f9
0b
fb
d3
e4
c4
cc
ec
2f
12
f6
11
19
23
ef
e6
02
ff
0a
0c
00
06
fd
27
08
0e
fe
09
e1
01
d6
e0
dc
e8
02
03
05
ef
00
04
01
01
fa
ff
02
02
e3
f5
13
e0
ec
ff
e1
fd
d9
ec
1c
06
eb
fb
14
0e
d8
fc
f5
fc
fa
f7
1f
02
ec
09
26
2f
3d
11
15
cd
02
e7
0c
1f
f3
0f
f6
10
fc
fd
fb
07
0d
08
12
fb
08
dd
2b
0d
13
00
f0
0f
d5
e7
16
1d
13
f8
f4
f2
f3
04
f8
12
ee
f2
f4
ef
f7
14
e9
fc
0c
06
ed
f7
20
06
0b
dc
0b
ff
09
fa
fd
07
01
11
e6
fe
31
08
e9
fd
fa
0f
f0
f7
eb
fa
f6
0c
00
01
09
f2
f5
fd
f9
f6
0a
25
fa
e4
b9
e4
ee
e9
f0
ea
e3
08
01
0e
0c
ed
19
ee
fa
0c
02
f8
fe
00
d9
1e
ea
e7
f3
d8
e6
fc
23
0e
07
fb
e2
ee
db
e8
fc
fd
ff
ed
f5
0b
f6
ec
07
c7
ed
ec
2c
fa
ea
f9
d7
ff
f1
0a
f7
00
0f
ef
ff
fb
fd
fa
f9
00
f1
e2
ed
f1
00
f5
f4
1c
f5
f5
11
f6
fd
1e
05
06
ed
09
ff
17
f4
00
0d
11
00
cf
f9
e8
f4
e4
16
16
fa
27
fd
00
12
15
f1
f1
fe
ff
f6
f0
0e
02
09
f9
28
f2
f1
e5
da
e8
e8
1a
07
02
f5
f5
25
0c
10
f1
fa
0a
04
ff
ef
e8
f5
04
f8
28
0e
eb
df
e2
f0
02
f4
10
1a
2e
02
ea
f2
e5
05
ff
01
07
1b
0f
fc
04
1b
11
23
da
da
15
07
0f
12
0f
f2
05
ff
07
ee
f8
03
19
eb
21
1e
ef
c9
1a
08
17
e1
ec
0f
d8
08
10
22
04
f2
06
e6
ef
f7
ff
f8
12
ed
d9
0e
03
0f
ef
1e
0f
fa
e2
e1
ff
18
2c
08
09
f6
06
f7
fb
f9
03
ee
e9
e1
0e
1f
08
03
02
e6
d6
16
de
ee
fe
f7
17
f5
04
fb
01
03
f6
0d
fa
12
e5
f5
f8
03
fb
07
f1
df
11
f7
1b
18
26
f2
ec
f7
04
ee
f2
01
0c
47
13
e9
f1
f8
06
f1
ea
22
fb
07
08
16
15
19
04
e6
fe
03
02
fc
fe
08
de
e6
27
26
e4
fd
d2
03
ff
eb
f5
f0
0d
17
24
f1
13
f5
01
f5
f1
13
18
2c
d5
c3
e5
fa
ef
ea
df
22
19
11
fb
fb
05
0f
f6
ef
07
f8
07
06
fd
fe
16
14
09
fc
03
fc
f6
ee
05
17
ff
f7
16
18
24
fe
f0
03
02
0c
03
01
02
18
f4
f9
f1
0d
01
ee
09
0a
fe
df
e3
18
05
11
f8
f2
0f
f5
f9
f1
0c
00
fc
1b
ed
fc
df
28
f4
f6
fe
dc
da
09
ea
f6
10
1a
0b
e2
f7
07
ff
f1
07
f9
e0
f4
e7
08
dc
dc
cd
e2
1f
e7
09
16
19
f2
ff
02
13
02
0a
01
f0
01
0a
ec
12
da
ec
eb
fa
f4
e7
15
e2
00
20
f2
fc
04
05
ed
05
fc
f2
02
fc
0a
03
00
2e
03
0c
10
01
ed
f2
ef
06
ef
f5
15
24
1c
00
f4
fd
fa
17
ff
05
fc
14
e5
c3
0a
05
df
eb
17
e7
05
05
fe
05
f7
fb
f5
ff
fd
fa
fc
01
f5
f9
19
dc
dd
0c
ee
d1
f4
0d
12
ee
2d
26
14
13
f2
f3
01
0e
14
02
20
1e
01
0d
f7
ff
e4
0b
e7
e5
08
f1
0d
f8
11
fd
fd
0c
f5
03
09
f2
f4
f0
28
f6
14
02
d4
23
ff
fa
f2
f6
fe
fd
fd
e3
05
18
e8
08
ee
f9
fe
f3
ff
1d
0c
f9
08
0a
fc
04
f8
08
19
0e
0a
f8
1b
1d
02
eb
07
02
0a
0d
09
06
fa
fa
18
fd
14
de
04
ee
f7
e8
04
e1
0c
1c
ff
00
04
fc
f6
f8
f8
0e
04
0e
1f
c3
f5
0b
09
04
0b
2f
f7
0e
f6
e6
04
02
e4
16
07
fa
0a
fc
f6
0b
f2
19
fc
c9
e4
f0
fe
f8
01
1f
01
06
0e
01
1a
05
fd
f5
07
f7
fd
fc
0f
16
14
14
e4
06
03
10
1d
23
4a
2f
09
d8
08
f1
f4
03
06
fe
09
02
10
03
0e
01
02
e7
03
f7
c3
bb
ee
21
ff
07
18
0a
00
ea
05
ff
f8
0e
ff
05
fb
03
0e
f5
04
14
fd
fb
09
1d
25
0e
da
d8
f1
e1
02
14
03
06
15
07
fd
01
10
1f
f7
fd
c8
1e
03
00
df
f2
f9
02
05
f5
23
03
e7
fe
ef
f8
fa
04
f9
2d
e5
e8
04
10
e2
e8
fd
13
0a
f6
05
f0
e9
f9
10
2b
fb
04
0b
15
03
fc
0b
04
0d
fb
ec
08
29
0e
f5
ef
ef
f9
14
28
1b
07
fd
0f
f2
0a
ed
fc
fd
e4
16
fe
10
27
e0
d8
f9
d7
c7
f7
2b
16
11
23
0e
f8
f9
de
ed
06
20
03
11
24
17
ed
e0
e9
dd
e0
e9
f1
e5
ef
f9
fa
0d
f1
1b
e4
f9
0a
07
f8
fa
cd
1c
f9
e8
f2
1c
f3
e6
ec
dd
09
21
0f
06
f9
f4
ff
00
07
00
0b
05
f6
fd
14
14
0d
06
e5
e6
e2
09
0d
3e
09
f9
02
00
f5
f5
fd
f3
12
fe
21
1b
e4
e2
e1
f8
01
e6
db
de
fe
33
1b
1e
02
1a
01
fb
29
0f
06
0c
fc
09
f8
0d
0b
0b
f6
ea
dd
df
e4
14
18
e4
df
fe
f3
f4
e6
fd
f4
f3
05
f9
e2
01
00
cf
13
eb
d7
01
ee
ec
0c
02
10
14
da
18
01
18
ed
f7
03
fe
00
fc
f7
fb
c4
03
c3
15
17
fb
ee
06
09
08
14
12
1f
0f
17
25
fd
16
0a
07
f7
07
0d
eb
cc
e7
2e
0d
16
14
1f
15
fb
22
10
20
0e
00
11
f2
e9
f2
0e
fb
ff
04
df
f0
bd
f4
ff
e9
17
20
25
ec
e1
08
f8
f1
2c
13
f4
0e
e7
f7
09
0c
fa
db
0e
d9
1b
08
e7
0a
14
01
f0
13
32
fc
04
10
0b
01
00
15
f6
ff
fb
f5
c7
ee
ad
2b
27
f9
e7
11
23
15
06
14
05
1a
00
1a
12
fb
12
f9
f6
0d
1e
25
df
ff
fe
f8
f8
07
fd
09
11
ee
f0
0f
09
00
f2
fa
08
fe
fb
08
ff
fa
12
26
03
f7
d9
f9
09
09
09
19
fd
fe
13
01
ff
19
1a
10
ff
fd
00
fe
cd
2a
d6
00
1c
e8
e9
ef
f7
f2
05
0e
02
09
2a
19
10
0f
ff
01
12
fa
f0
e7
be
d3
06
06
f9
fa
00
12
1b
fa
09
0c
1a
1a
0d
01
08
e8
07
1c
fb
f2
d9
d1
f6
b9
25
0d
f5
f7
f7
f1
0b
fd
f8
e6
18
1c
0f
1c
f4
f8
0b
fc
ef
01
d5
c7
e5
f8
14
05
0f
18
0b
12
1d
e3
01
fb
14
f3
03
02
00
0c
fd
fc
db
d3
12
0e
01
04
fc
fe
1a
f1
18
1a
03
13
ff
08
02
02
06
09
fc
f1
f3
02
04
f2
ee
22
09
f7
07
06
1b
ff
10
ea
f8
e6
14
ff
00
f6
00
f3
ff
fe
21
d9
ea
fe
17
06
ff
ee
08
ee
01
21
03
2d
22
dc
e9
ee
e0
f2
fb
0a
f7
f3
0a
d7
f5
e0
07
12
fc
03
09
09
08
12
0a
26
22
04
25
16
1f
03
0d
02
09
16
08
03
12
09
20
17
f9
e2
e5
05
1b
e6
e4
eb
04
ed
12
f3
fc
f8
f8
11
b5
e3
de
fc
0d
fa
fa
0e
16
33
eb
f8
fc
09
f2
05
0a
fc
f6
11
04
fd
16
e3
d3
df
0a
0e
df
ef
0f
00
26
fc
05
05
25
0f
0c
ff
03
0c
07
07
00
e0
e6
09
ed
08
f8
fd
06
03
17
20
ff
02
0f
14
00
06
1b
e7
f8
08
08
f4
04
de
fc
fd
f9
f5
f0
e8
08
09
10
22
fa
18
fa
0a
f0
f6
fe
f5
fd
03
eb
d9
e4
ef
11
fc
ee
f5
06
06
1a
12
05
fe
05
ee
0f
0f
0e
fd
ff
09
fa
01
ee
e7
e5
d3
0b
0c
f5
dd
1d
11
21
0a
02
fc
1e
01
0a
1e
0d
18
03
f5
fe
fc
dd
ec
fd
ff
17
eb
00
0f
f7
0d
06
05
fe
1d
05
10
27
17
fb
0d
01
f6
ed
e5
e9
0a
f8
08
09
fd
08
12
09
d6
fc
26
f9
fd
0f
06
1f
17
10
02
fb
0c
01
fd
1d
ed
f5
f0
eb
03
fd
1e
13
25
1a
ef
e5
11
09
18
21
0c
11
05
08
e6
fc
00
0b
fc
fa
fb
15
0a
06
ff
0e
ef
f9
fd
03
16
e8
1a
f9
06
fc
05
f0
06
1a
f2
11
16
f9
f7
f2
fd
eb
fd
f2
19
1b
0b
0a
08
04
05
05
fa
09
dc
e4
d6
24
0f
06
fa
1f
f5
f9
16
fe
0e
1e
15
01
00
f6
02
ff
fc
07
15
ea
01
09
ff
ee
f5
f3
f0
fd
0e
0e
0a
f4
f5
f7
07
f8
03
04
fc
0c
f3
f9
dc
e9
07
15
0c
01
08
20
28
0f
16
0a
fe
25
14
ed
f3
f2
f7
06
05
f6
e5
d3
f3
17
03
fc
f8
0c
1a
1d
1b
0d
f9
1f
17
f9
f3
e7
19
08
fe
f4
f9
fb
f5
03
ca
07
08
e6
11
07
0a
1c
00
00
e1
d2
09
14
fb
e8
fd
eb
f0
f7
ff
1a
f7
06
16
06
f5
ee
ec
fa
f1
1d
05
ef
01
0d
06
23
f3
0e
0a
f9
fd
d7
cb
f2
14
05
10
f4
1c
02
16
04
12
f1
f5
f8
1e
fd
ee
e7
06
08
fe
f8
aa
07
ff
f6
01
11
03
0b
fc
08
e1
ff
0b
fc
0a
f9
12
e7
e8
f0
04
f5
f6
eb
07
ce
d7
f5
0e
0f
04
f7
1f
27
f4
f6
14
07
14
05
03
f2
fa
f8
f8
fa
06
fc
0d
00
07
1c
e6
10
19
f1
0b
ff
05
e2
00
01
1a
09
fc
0a
f4
fa
00
f5
10
14
0d
fc
08
0e
04
ee
e5
f2
00
09
e5
de
f1
f3
ef
fe
05
ff
02
f5
f5
01
ef
ee
00
0a
09
0c
0f
f2
fa
16
e0
0d
0a
0a
06
e8
03
ea
07
fe
fb
fc
ef
08
02
03
0d
d4
f7
16
09
0b
0e
08
08
f8
ec
d2
fb
08
f2
fa
02
fb
09
14
ed
f7
0f
1a
fd
0b
08
fe
e9
dd
f3
f2
0e
2a
fb
f4
2f
0d
f8
04
03
dd
1e
be
01
1d
11
11
ef
10
0b
01
f0
fa
18
ed
11
2d
22
11
0e
07
07
04
01
fb
05
e0
07
07
fd
e0
eb
02
2f
18
15
1c
fa
f3
04
fc
f8
fd
f4
fb
fd
0c
fe
f9
0d
f5
f5
02
ff
f0
fa
11
0c
0a
0d
f9
ef
f9
00
0f
12
fb
01
f1
01
e8
ea
f7
dc
00
10
0c
ef
e7
fc
f9
de
ec
ed
d8
01
fb
f4
11
f9
fa
ef
08
0b
f6
ff
f6
e7
ff
1f
f2
ff
fd
f1
16
e1
ed
13
fa
f9
15
06
f7
1b
ff
e4
1a
fe
ea
fc
02
09
f0
00
f9
f5
1d
15
21
12
10
fb
01
15
0f
f9
fa
f5
f6
04
0f
0b
f1
00
03
13
f6
e5
f9
fc
e5
df
ec
f6
e4
f1
01
ff
f4
fe
f9
d1
c6
c2
e9
fe
0b
fd
1e
00
2c
11
02
fa
ee
0c
15
f7
0a
0b
00
0b
02
0e
dd
e2
1a
06
16
17
0b
fa
11
06
fb
fb
fe
10
11
fd
16
2a
ff
ea
1d
fd
f2
f1
e1
10
21
ee
fb
fb
0d
0e
21
26
10
0b
0c
02
06
1c
0c
0c
0c
09
f0
01
c2
f2
06
0d
fb
fc
f6
18
0d
18
ec
fa
08
04
09
24
eb
f4
12
06
eb
ff
03
ed
0c
06
0b
1d
2d
05
1b
1a
07
0a
1e
fb
00
fe
0a
19
11
11
18
fd
08
07
e6
fe
1a
f9
01
01
05
f8
06
da
c5
fa
39
18
0d
f7
ef
e5
04
02
03
03
01
e8
c8
f7
15
fc
fd
e0
10
10
22
19
1d
0a
11
11
03
ef
f1
12
00
03
f7
f9
02
0e
19
fe
00
01
02
f0
f1
d0
0f
0a
22
1e
ff
06
02
01
0b
fc
f3
13
ff
f1
0b
f8
fc
1b
f7
f6
11
e4
20
ff
ea
e8
ef
e7
15
02
fe
04
02
f9
0c
01
fe
b8
dd
de
f2
12
f5
fa
12
27
35
08
f7
06
ff
f4
f9
e5
db
ee
f7
f6
07
e6
d0
ed
fc
f9
2d
0f
06
1c
fc
fe
15
f2
26
02
1b
00
1a
09
06
fb
00
02
12
df
ff
fe
fa
eb
f4
09
05
24
fd
f9
ff
0f
05
0e
04
0a
00
f6
0d
01
02
f8
f8
f0
ff
d7
f8
09
ff
fb
09
f0
0b
32
2d
ee
09
0a
1a
13
f1
06
e9
f3
ea
fe
f8
e1
e0
e8
f6
18
ff
0f
f2
ea
06
e3
ef
0d
fd
f6
fe
03
f0
fb
06
13
e5
02
05
0f
16
f9
05
fe
0a
fc
09
0a
0a
0f
f2
11
0a
3e
13
12
06
06
10
26
fa
1e
ea
ef
00
fc
fa
e4
16
fc
fc
f3
f9
f6
0a
00
01
0b
f6
00
fc
f4
17
01
17
f4
f6
f7
05
03
f9
08
04
1a
fe
ed
16
f7
fc
fb
fd
fe
fb
0a
29
f1
1f
fa
1a
17
fd
ff
08
eb
ec
1b
0f
26
f3
ff
f6
fe
03
ff
f5
07
09
16
df
e7
04
ea
09
20
1c
1b
09
f9
d8
e0
0e
0f
fb
fe
fb
01
f2
f9
f6
0a
1b
24
0c
18
17
fa
e4
f0
ec
03
f6
19
17
22
0f
0c
fe
f3
fd
fb
f6
f1
09
0a
27
f2
22
07
fa
18
0c
18
11
fe
0e
04
e0
ed
24
ec
f5
f4
06
f7
f0
fc
cf
2c
13
df
f9
23
04
0e
0b
04
ed
e8
0d
ef
11
e8
fb
f5
03
f5
fd
06
fb
f9
31
10
00
d5
d7
fd
1b
e2
fc
13
14
f8
04
02
fb
f1
00
ff
04
05
fd
01
e9
0f
28
13
fc
dd
f6
07
01
f9
ef
f6
df
f8
03
f5
f3
f3
fa
fc
f5
03
fd
03
04
24
01
f5
f2
f5
f4
09
d7
e2
f7
ee
0c
15
06
f8
02
ec
04
ff
fe
07
e0
07
12
f8
37
04
f9
08
07
0b
22
f5
f0
ee
f6
ec
f0
01
e8
09
f8
ff
fd
1a
04
03
f4
01
3c
f1
35
fc
fa
eb
24
03
f1
fd
f7
01
e6
fa
f2
f2
ff
fe
f6
ed
eb
ec
0c
f8
09
05
ea
ef
0c
f9
01
08
05
0b
01
f1
f9
f5
f9
fe
f6
f6
02
0d
e6
fe
eb
2b
fb
0e
0f
eb
f5
e7
19
05
09
fa
fc
f7
fe
fb
fe
03
3a
d0
1f
27
f7
d5
e4
ef
f1
e7
e4
0e
fd
fd
fd
fe
ea
eb
fa
00
fd
fe
fd
1e
12
17
ee
e8
0d
0f
eb
12
0c
13
05
19
ee
14
0f
f7
f5
08
fd
03
fb
01
f1
03
ec
df
31
f8
f0
ed
f1
e8
04
0c
02
0a
eb
03
ef
ff
02
00
04
02
ff
f0
ce
04
16
ff
26
17
0c
05
f0
f9
f3
ea
e0
08
e8
fb
03
ec
03
f2
06
ff
fe
18
f9
e6
d4
2b
07
1c
21
f1
fb
04
ed
10
06
f0
df
ed
ee
01
fa
f2
f8
b9
0c
29
1a
f0
ff
0c
ec
13
fb
0b
e1
0b
f6
01
e2
05
02
0b
04
02
03
f8
fd
0a
05
ef
f9
ca
e1
e7
02
ed
1a
ff
da
e0
ef
02
03
f0
00
f8
fc
07
f1
33
25
11
08
f1
f8
14
04
08
1b
0f
20
f9
e2
fb
10
fc
02
f8
02
00
f8
01
20
fb
0c
27
f1
01
0f
1c
22
20
0b
16
fe
fd
00
03
f1
fe
fb
09
f6
fd
02
eb
ee
f9
ee
fd
0c
eb
07
f8
0b
18
f4
16
12
12
00
f5
01
01
01
fc
02
f7
09
2b
0d
05
f5
e1
ec
02
20
22
09
09
03
f3
fa
21
f7
f8
00
02
fb
02
fe
0a
08
05
03
ef
08
f3
06
0d
fd
f8
0e
17
fd
01
0e
f5
f3
00
08
02
fb
fb
f2
f7
2a
04
e4
09
0e
f9
14
fd
11
fb
0e
00
ff
e2
fd
00
ed
04
f6
f8
f8
fc
f6
f4
08
ee
12
02
f6
1f
08
ee
13
fd
ea
f6
f5
fe
f8
f3
04
fc
02
03
08
f0
d3
08
fb
ec
e9
1a
10
fd
14
09
06
f1
00
09
0d
e9
f6
02
05
f3
09
26
fb
0f
0d
16
06
fd
ee
fc
11
02
02
12
dc
fc
12
e0
f2
ff
04
07
fd
00
01
ea
de
1c
0c
14
1d
ef
0e
06
d8
0d
f5
0f
f6
f2
00
fe
01
04
f2
06
f0
ed
d7
ef
e3
ec
f4
fd
1b
f7
03
f9
fe
e8
28
ff
0e
f8
fd
0c
f7
e4
fb
f9
e8
32
11
fa
01
f5
f7
03
0e
eb
26
13
0b
07
e4
07
fc
09
f9
fd
fd
eb
05
11
14
21
df
1d
bc
e7
f9
e0
e3
14
19
f2
f7
f9
f5
e6
fa
f2
fa
ee
ed
f5
28
eb
2b
fc
df
0c
3f
07
1c
f0
ec
f2
e3
11
fc
fc
00
ed
eb
05
fa
0a
0a
97
1d
f5
f2
f6
fb
f0
11
18
fc
07
f1
fa
10
f7
ee
ed
f4
f9
08
00
06
fe
17
33
e5
d1
0f
20
1e
05
14
f2
09
06
e5
f4
f6
0d
f7
ff
e1
07
f0
fe
fe
ef
35
fd
ee
ed
13
f7
03
04
0b
23
12
1e
10
fc
02
05
f6
f8
f9
01
ec
05
d7
da
f3
0d
11
f5
fc
fb
f5
ec
f6
f2
f8
f2
f2
fc
01
03
08
0a
0e
0d
f8
cf
ff
14
07
0d
f1
dd
f6
fa
e5
ee
08
dc
f6
eb
f4
fd
eb
ff
fa
f9
0a
fd
06
23
f3
ff
f5
08
dd
18
d6
f3
fe
fc
20
13
17
fb
ea
f8
07
fa
f7
fd
f5
04
20
d4
e8
fb
d8
f7
17
19
f8
dc
01
0a
f2
04
09
ef
f6
02
f9
f8
ee
06
c5
fd
1b
1d
10
f7
19
1a
0e
1e
0a
f2
f2
11
f1
f6
f7
f8
07
f8
fc
05
01
0d
13
0b
26
15
cf
e9
f3
f1
0f
29
1a
0e
e9
fc
07
ef
f8
fe
01
fc
fd
f4
10
25
0e
f8
24
ed
f4
fa
eb
f7
e3
ff
fd
0f
ff
10
ee
fd
fa
07
f0
00
f3
f1
11
10
ee
06
eb
d3
d7
f8
de
e3
e6
f5
05
fe
dc
ee
eb
f6
0c
03
ff
f0
e6
f4
1a
10
dc
20
f6
13
09
f6
da
f0
eb
f9
f8
00
e6
ef
01
fa
07
00
01
be
15
08
fe
25
e8
dc
e1
d5
d5
f1
ed
01
00
ff
e2
f4
eb
fc
00
fc
fb
fd
d6
e5
04
09
01
08
dd
f0
ec
e0
e4
e1
00
e1
e5
f8
f9
f7
02
00
fc
07
f8
f7
de
1d
25
00
23
25
0b
0a
22
08
e9
fe
fb
01
01
10
fa
06
08
0e
0c
fe
db
fe
03
0e
f4
ff
f5
14
ff
0b
02
14
16
00
03
f8
f2
f6
f1
03
02
00
ed
2b
f4
fb
e7
00
0f
11
10
20
35
21
1c
04
fe
fe
02
fd
0f
f9
fc
f6
01
fa
e6
fe
0e
fb
e3
1a
23
13
1a
28
16
0a
1a
f8
0f
08
02
fc
12
f0
fd
08
f6
cc
15
e9
fb
f3
04
10
1c
04
12
23
10
16
16
fa
f6
08
fa
02
fe
0a
05
08
e9
eb
dd
eb
fc
dc
01
0f
e4
06
10
01
23
14
19
0f
ed
f3
00
04
09
02
fd
e8
01
f8
dc
11
d7
08
ee
f1
e7
1a
df
00
1a
ed
f8
fc
f4
f8
f5
eb
fd
f9
cf
f7
13
11
d7
1c
11
19
fc
fb
f0
db
01
fb
12
0b
f4
fe
fa
fc
0b
fe
01
22
db
29
f5
1c
25
0d
fe
23
00
fb
df
0a
ff
e0
dd
f7
ec
0a
07
f9
0f
f3
47
c8
f3
38
e0
0d
15
f4
01
13
10
f6
e7
f0
09
0e
01
fb
f9
fd
eb
03
fc
fd
07
f1
f3
09
04
ea
03
10
0b
27
1b
2a
10
0c
f7
ef
f2
fe
f1
03
fe
fb
19
dc
eb
e0
d6
dc
ea
29
e7
e1
f2
fc
e9
e4
f1
f1
ea
04
02
f8
fa
f8
fd
0c
e5
22
2f
f4
1d
08
f3
05
2d
f8
1b
01
20
20
11
01
f7
f8
f5
f4
06
f5
f5
14
f1
17
e6
05
14
2f
2e
10
05
10
f6
f9
f7
ff
f6
f3
03
01
06
fc
07
05
eb
da
12
00
ff
f2
fa
02
ee
07
18
f9
17
03
14
f6
fb
02
04
f8
fa
ff
f3
24
07
fd
d4
ea
0c
f0
18
16
f7
17
0f
da
fd
12
fb
fc
02
02
ff
06
fd
00
00
00
00
00
00
00
00
00
00
00
00
00
00
00
00
00
00
00
00
00
00
00
00
00
00
00
00
00
00
00
00
00
00
00
00
00
00
00
00
00
00
00
00
00
00
00
00
00
00
00
00
00
00
00
00
00
00
00
00
00
00
00
00
00
00
00
00
00
00
00
00
00
00
00
00
00
00
00
00
00
00
00
00
00
00
00
00
00
00
00
00
00
00
00
00
00
00
00
00
00
00
00
00
00
00
00
00
00
00
00
00
00
00
00
00
00
00
00
00
00
00
00
00
00
00
00
00
00
00
00
00
00
00
00
00
00
00
00
00
00
00
00
00
00
00
00
00
00
00
00
00
00
00
00
00
00
00
00
00
00
00
00
00
00
00
00
00
00
00
00
00
00
00
00
00
00
00
00
00
00
00
00
00
00
00
00
00
00
00
00
00
00
00
00
00
00
00
00
00
00
00
00
00
00
00
00
00
00
00
00
00
00
00
00
00
00
00
00
00
00
00
00
00
00
00
00
00
00
00
00
00
00
00
00
00
00
00
00
00
00
00
00
00
00
00
00
00
00
00
00
00
00
00
00
00
00
00
00
00
00
00
00
00
00
00
00
00
00
00
00
00
00
00
00
00
00
00
00
00
00
00
00
00
00
00
00
00
00
00
00
00
00
00
00
00
00
00
00
00
00
00
00
00
00
00
00
00
00
00
00
00
00
00
00
00
00
00
00
00
00
00
00
00
00
00
00
00
00
00
00
00
00
00
00
00
00
00
00
00
00
00
00
00
00
00
00
00
00
00
00
00
00
00
00
00
00
00
00
00
00
00
00
00
00
00
00
00
00
00
00
00
00
00
00
00
00
00
00
00
00
00
00
00
00
00
00
00
00
00
00
00
00
00
00
00
00
00
00
00
00
00
00
00
00
00
00
00
00
00
00
00
00
00
00
00
00
00
00
00
00
00
00
00
00
00
00
00
00
00
00
00
00
00
00
00
00
00
00
00
00
00
00
00
00
00
00
00
00
00
00
00
00
00
00
00
00
00
00
00
00
00
00
00
00
00
00
00
00
00
00
00
00
00
00
00
00
00
00
00
00
00
00
00
00
00
00
00
00
00
00
00
00
00
00
00
00
00
00
00
00
00
00
00
00
00
00
00
00
00
00
00
00
00
00
00
00
00
00
00
00
00
00
00
00
00
00
00
00
00
00
00
00
00
00
00
00
00
00
00
00
00
00
00
00
00
00
00
00
00
00
00
00
00
00
00
00
00
00
00
00
00
00
00
00
00
00
00
00
00
00
00
00
00
00
00
00
00
00
00
00
00
00
00
00
00
00
00
00
00
00
00
00
00
00
00
00
00
00
00
00
00
00
00
00
00
00
00
00
00
00
00
00
00
00
00
00
00
00
00
00
00
00
00
00
00
00
00
00
00
00
00
00
00
00
00
00
00
00
00
00
00
00
00
00
00
00
00
00
00
00
00
00
00
00
00
00
00
00
00
00
00
00
00
00
00
00
00
00
00
00
00
00
00
00
00
00
00
00
00
00
00
00
00
00
00
00
00
00
00
00
00
00
00
00
00
00
00
00
00
00
00
00
00
00
00
00
00
00
00
00
00
00
00
00
00
00
00
00
00
00
00
00
00
00
00
00
00
00
00
00
00
00
00
00
00
00
00
00
00
00
00
00
00
00
00
00
00
00
00
00
00
00
00
00
00
00
00
00
ff
00
00
00
00
00
00
00
00
00
00
00
00
00
00
00
00
00
00
00
00
00
00
00
00
00
00
00
00
00
00
00
00
00
00
00
00
00
00
00
00
00
00
00
00
00
00
00
00
00
00
00
00
00
00
00
00
00
00
00
00
00
00
00
00
00
00
00
00
00
00
00
00
00
00
00
00
00
00
00
00
00
00
00
00
00
00
00
00
00
00
00
00
00
00
00
00
00
00
00
00
00
00
00
00
00
00
00
00
00
00
00
00
00
00
00
00
00
00
00
00
00
00
00
00
00
00
00
00
00
00
00
00
00
00
00
00
00
00
00
00
00
00
00
00
00
00
00
00
00
00
00
00
00
00
00
00
00
00
00
00
00
00
00
00
00
00
00
00
00
00
00
00
00
00
00
00
00
00
00
00
00
00
00
00
00
00
00
00
00
00
00
00
00
00
00
00
00
00
00
00
00
00
00
00
00
00
00
00
00
00
00
00
00
00
00
00
00
00
00
00
00
00
00
00
00
00
00
00
00
00
00
00
00
00
00
00
00
00
00
00
00
00
00
00
00
00
00
00
00
00
00
00
00
00
00
00
00
00
00
00
00
00
00
00
00
00
00
00
00
00
00
00
00
00
00
00
00
00
00
00
00
00
00
00
00
00
00
00
00
00
00
00
00
00
00
00
00
00
00
00
00
00
00
00
00
00
00
00
00
00
00
00
00
00
00
00
00
00
00
00
00
00
00
00
00
00
00
00
00
00
00
00
00
00
00
00
00
00
00
00
00
00
00
00
00
00
00
00
00
00
00
00
00
00
00
00
00
00
00
00
00
00
00
00
00
00
00
00
00
00
00
00
00
00
00
00
00
00
00
00
00
00
00
00
00
00
00
00
00
00
00
00
00
00
00
00
00
00
00
00
00
00
00
00
00
00
00
00
00
00
00
00
00
00
00
00
00
00
00
00
00
00
00
00
00
00
00
00
00
00
00
00
00
00
00
00
00
00
00
00
00
00
00
00
00
00
00
00
00
00
00
00
00
00
00
00
00
00
00
00
00
00
00
00
00
00
00
00
00
00
00
00
00
00
00
00
00
00
00
00
00
00
00
00
00
00
00
00
00
00
00
00
00
00
00
00
00
00
00
00
00
00
00
00
00
00
00
00
00
00
00
00
00
00
00
00
00
00
00
00
00
00
00
00
00
00
00
00
00
00
00
00
00
00
00
00
00
00
00
00
00
00
00
00
00
00
00
00
00
00
00
00
00
00
00
00
00
00
00
00
00
00
00
00
00
00
00
00
00
00
00
00
00
00
00
00
00
00
00
00
00
00
00
00
00
00
00
00
00
00
00
00
00
00
00
00
00
00
00
00
00
00
00
00
00
00
00
00
00
00
00
00
00
00
00
00
00
00
00
00
00
00
00
00
00
00
00
00
00
00
00
00
00
00
00
00
00
00
00
00
00
00
00
00
00
00
00
00
00
00
00
00
00
00
00
00
00
00
00
00
00
00
00
00
00
00
00
00
00
00
00
00
00
00
00
00
00
00
00
00
00
00
00
00
00
00
00
00
00
00
00
00
00
00
00
00
00
00
00
00
00
00
00
00
00
00
00
00
00
00
00
00
0e
c7
0a
dc
fa
08
ed
f4
03
ff
f5
2a
12
27
30
16
1f
f2
1b
04
09
00
f1
e8
fe
c8
f1
0e
13
01
f5
17
fd
f5
05
03
03
14
fd
11
e5
fc
f0
00
f7
11
f0
df
fe
ea
d6
1a
0b
13
28
03
e6
ea
ff
fa
fb
1e
14
ff
fb
fe
f5
fc
09
fe
e4
09
e6
0f
f9
ed
03
17
10
ce
07
11
fb
0b
fe
0a
ef
19
11
f9
fd
fb
0b
db
fb
ba
0a
07
0e
f6
f8
0f
fd
03
fc
01
22
f7
0f
f8
08
13
ed
e8
fe
e6
1d
e0
ee
ee
03
fc
0d
fc
f3
26
df
e3
00
0b
ff
e5
f3
f5
06
fb
05
fe
06
19
05
db
d3
d4
05
1f
0d
0e
0d
fd
fd
14
12
09
20
1a
0c
f9
fc
f2
fd
06
30
0f
05
fb
15
f1
0b
ed
d3
dc
09
11
0b
1d
0c
fe
0a
09
04
0e
0d
09
01
c1
ee
10
03
4e
02
05
f9
19
f2
f7
0c
fe
11
f8
05
07
02
02
1f
00
fb
f1
d3
1e
cf
30
27
10
14
06
f8
07
02
00
ee
05
1e
01
0b
f4
00
f1
04
ed
f7
01
c6
e0
f2
f3
0d
04
0a
ed
0a
29
df
00
09
1a
ff
0c
f6
05
09
fb
00
df
07
01
08
2d
fe
02
fd
1d
e6
16
14
f7
f7
06
18
fc
eb
fc
0b
f9
f5
f1
03
d0
ed
dc
3a
15
ff
f0
11
2d
ec
0f
0f
f8
09
0c
05
08
fc
fd
fa
01
fd
1a
f6
11
18
01
1d
03
fa
f2
db
cf
05
f3
25
12
d8
cd
03
01
f7
f7
04
08
07
07
f5
e3
d5
16
fb
fe
f6
08
ff
00
1e
07
29
1e
0b
1f
0b
23
04
fc
f6
06
0f
fe
02
34
ec
01
01
05
e8
fd
fe
01
e3
dd
fb
04
ff
fb
fe
ff
fa
08
07
b9
fc
fc
04
09
1a
0c
17
f8
12
fe
fd
01
0a
07
01
06
02
04
fd
f9
02
0e
d1
e7
c1
11
12
01
ff
14
1f
fe
f7
00
1a
29
13
fa
ef
07
13
fd
05
03
eb
f4
0e
19
e7
0e
02
26
00
01
04
f1
04
ee
f2
f1
0d
03
09
fc
0d
f6
01
d9
00
03
fb
19
f3
f1
fa
04
04
15
1c
09
0c
fb
0c
fe
fd
0a
12
07
14
f8
df
f9
01
fb
e5
fe
28
1e
16
17
09
06
fb
08
ef
09
f6
13
02
15
f2
e2
f9
1d
f5
de
ec
d9
0e
0c
fd
0e
f6
04
fd
07
23
0d
f7
fd
04
1e
1a
f5
ef
fd
04
d9
01
e2
17
0b
00
0d
1c
00
21
08
02
0e
0c
13
ee
19
0d
08
f7
0e
f3
e1
0a
e0
f7
f3
ed
ef
0f
ff
f0
06
e2
f5
29
ff
05
1d
0f
18
1a
13
fe
fb
0b
03
f1
fb
f4
e9
da
ef
07
0c
10
0b
08
21
07
fe
09
ff
17
15
08
07
f9
03
bd
ff
ec
03
eb
15
0c
04
15
fb
ea
0c
ec
08
ff
f4
03
f1
12
e6
01
07
07
fb
ef
ff
f4
0a
fb
f5
01
fd
f8
f1
ef
06
f1
1e
f8
00
01
12
12
14
fa
2d
ec
e8
fb
02
f4
07
07
35
ef
ec
04
09
02
1f
08
ea
fa
17
f8
03
ef
f8
13
0d
ed
04
15
f0
ee
28
05
10
05
f0
0f
ee
f9
f4
00
fd
eb
1d
f7
03
03
fe
d0
fe
15
28
ff
1d
00
1d
0c
fb
16
04
eb
00
05
e7
f3
ed
07
f6
04
03
c9
e6
fa
08
1b
d5
fc
f1
1d
0d
1a
16
ef
fc
01
0c
0b
f4
11
0e
0b
fb
08
15
c1
0a
c2
e7
f2
f1
01
00
1f
f9
0a
16
ec
d1
f6
08
00
f2
ff
03
fc
f9
fc
12
f2
f6
fb
06
03
01
eb
07
e0
f3
30
e3
21
08
08
22
16
fa
0a
0c
15
e8
bb
f8
03
06
16
0a
16
f8
11
0e
18
da
e0
f9
1b
fc
ef
e2
08
04
fe
ea
e0
11
03
f5
ff
13
e7
0b
1e
fd
f5
06
00
e0
04
02
08
fd
fb
f8
06
fc
01
ba
e8
dd
bf
2b
2f
24
0e
f0
15
13
12
0b
ef
f8
f8
04
ff
e4
00
02
f3
f7
f9
d4
06
df
e3
06
e8
10
1f
ff
e5
f9
07
ed
fb
fc
15
0d
12
fc
fc
f0
fb
11
1e
17
08
07
05
00
fc
f5
fb
0a
0a
fe
da
e3
05
ff
fc
f7
05
f7
02
03
ff
2a
fb
03
00
fc
00
f2
0e
ec
13
14
d6
ef
06
1e
04
f0
fe
fd
08
f9
05
05
d7
0a
f1
f8
00
ce
fc
fa
07
12
fb
04
1b
f0
f9
ce
12
0c
f7
11
06
09
05
24
e3
f3
ed
0c
fa
06
0a
00
ec
f7
13
f6
0b
22
f4
ef
2a
13
0b
01
f0
fa
16
00
ff
06
1c
0f
08
f8
0b
0c
f5
fd
fc
09
14
0f
23
0f
1c
03
ea
f9
0b
04
04
06
e8
02
ea
fd
e6
fa
25
f2
ff
14
ef
e9
f2
ea
ff
0b
f7
f8
f3
fc
0a
f2
07
31
c9
e2
07
07
f9
fa
14
f2
fd
f0
ec
ff
f5
f8
1a
f8
00
00
03
01
f9
01
0a
fc
ed
02
0f
ef
0b
0d
fd
02
fd
f2
08
f7
fb
0c
00
16
f0
15
1e
f9
fd
12
08
f2
12
03
f4
ea
f6
14
f7
0f
ff
0c
fa
1c
f7
fa
29
fe
f3
24
07
03
34
fa
01
dd
0b
fb
da
0a
0e
10
11
15
fa
f9
1c
0e
0c
08
0a
f8
19
1b
08
f3
07
f5
fc
fe
f5
fc
fb
ef
e5
e5
05
f6
05
01
09
00
00
08
e9
dc
d0
fd
d9
2a
0b
14
ee
0c
f0
0f
fa
e7
fa
0f
f4
0b
03
07
14
f3
ff
0a
f1
15
01
dc
04
f8
fd
0f
0c
00
02
24
18
10
0b
05
26
06
04
0e
f8
f3
db
df
f8
0c
f7
e7
0d
1c
22
01
29
f9
ef
fa
cd
fd
08
0c
01
12
ea
ea
f9
d2
09
0d
f8
d7
f1
f0
29
ea
ef
f7
ea
fa
f0
12
04
e7
f5
f9
f7
ee
f0
f6
f0
09
f4
e5
e3
1c
10
14
23
fb
0c
13
f1
07
0e
06
00
16
21
f6
05
01
0b
f4
f5
fe
f0
ed
f9
fd
fd
15
e0
fd
13
1b
10
1e
06
f4
ea
02
f6
fa
fd
fd
f6
ca
08
17
17
f1
fc
08
17
10
0c
14
04
08
05
fa
05
f0
04
fd
0e
06
0a
0a
1a
f2
e0
eb
23
f4
f4
02
ec
08
e5
04
1d
0f
01
04
18
1e
f9
fa
17
01
f9
f9
f7
f9
11
07
ff
22
fc
19
1b
ff
eb
e2
f6
0d
ed
e8
09
07
10
f6
ff
ec
dd
ff
16
e5
16
11
fe
01
eb
02
07
ff
f0
e5
dc
f5
eb
ff
f6
ff
ec
00
fe
e2
f1
e0
ed
01
04
ec
0f
e8
0f
25
fc
17
0a
38
f1
13
09
05
02
10
03
f1
e3
f4
f6
ed
f9
fa
14
fe
17
f6
eb
03
0b
f8
09
fa
1c
09
fd
ff
ec
13
08
02
e5
ff
b3
11
fb
08
fe
f4
db
07
f2
1b
f1
05
22
25
09
f9
05
e5
f5
f0
fa
d4
c3
e5
10
1b
2a
1f
10
f7
ee
03
fa
fc
fa
fa
fc
0e
01
f4
01
fb
19
ff
f9
0e
f9
03
ed
ed
00
fc
03
1c
fb
34
21
08
0e
fd
40
1c
21
1e
fc
f1
12
e3
ff
ef
f0
fb
27
10
e6
19
14
03
fe
ff
f7
1a
09
06
05
01
00
fe
00
00
00
00
00
00
00
00
00
00
00
00
00
00
00
00
00
00
00
00
00
00
00
00
00
00
00
00
00
00
00
00
00
00
00
00
00
00
00
00
00
00
00
00
00
00
00
00
00
00
00
00
00
00
00
00
00
00
00
00
00
00
00
00
00
00
00
00
00
00
00
00
00
00
00
00
00
00
00
00
00
00
00
00
00
00
00
00
00
00
00
00
00
00
00
00
00
00
00
00
00
00
00
00
00
00
00
00
00
00
00
00
00
00
00
00
00
00
00
00
00
00
00
00
00
00
00
00
00
00
00
00
00
00
00
00
00
00
00
00
00
00
00
00
00
00
00
00
00
00
00
00
00
00
00
00
00
00
00
00
00
00
00
00
00
00
00
00
00
00
00
00
00
00
00
00
00
00
00
00
00
00
00
00
00
00
00
00
00
00
00
00
00
00
00
00
00
00
00
00
00
00
00
00
00
00
00
00
00
00
00
00
00
00
00
00
00
00
00
00
00
00
00
00
00
00
00
00
00
00
00
00
00
00
00
00
00
00
00
00
00
00
00
00
00
00
00
00
00
00
00
00
00
00
00
00
00
00
00
00
00
00
00
00
00
00
00
00
00
00
00
00
00
00
00
00
00
00
00
00
00
00
00
00
00
00
00
00
00
00
00
00
00
00
00
00
00
00
00
00
00
00
00
00
00
00
00
00
00
00
00
00
00
00
00
00
00
00
00
00
00
00
00
00
00
00
00
00
00
00
00
00
00
00
00
00
00
00
00
00
00
00
00
00
00
00
00
00
00
00
00
00
00
00
00
00
00
00
00
00
00
00
00
00
00
00
00
00
00
00
00
00
00
00
00
00
00
00
00
00
00
00
00
00
00
00
00
00
00
00
00
00
00
00
00
00
00
00
00
00
00
00
00
00
00
00
00
00
00
00
00
00
00
00
00
00
00
00
00
00
00
00
00
00
00
00
00
00
00
00
00
00
00
00
00
00
00
00
00
00
00
00
00
00
00
00
00
00
00
00
00
00
00
00
00
00
00
00
00
00
00
00
00
00
00
00
00
00
00
00
00
00
00
00
00
00
00
00
00
00
00
00
00
00
00
00
00
00
00
00
00
00
00
00
00
00
00
00
00
00
00
00
00
00
00
00
00
00
00
00
00
00
00
00
00
00
00
00
00
00
00
00
00
00
00
00
00
00
00
00
00
00
00
00
00
00
00
00
00
00
00
00
00
00
00
00
00
00
00
00
00
00
00
00
00
00
00
00
00
00
00
00
00
00
00
00
00
00
00
00
00
00
00
00
00
00
00
00
00
00
00
00
00
00
00
00
00
00
00
00
00
00
00
00
00
00
00
00
00
00
00
00
00
00
00
00
00
00
00
00
00
00
00
00
00
00
00
00
00
00
00
00
00
00
00
00
00
00
00
00
00
00
00
00
00
00
00
00
00
00
00
00
00
00
00
00
00
00
00
00
00
00
00
00
00
00
00
00
00
00
00
00
00
00
00
00
00
00
00
00
00
00
00
00
00
00
00
00
00
00
00
00
00
00
00
00
00
00
00
00
00
00
00
00
00
00
00
00
00
00
00
00
00
00
00
00
00
00
00
00
00
00
00
00
00
00
00
00
00
00
00
00
00
00
00
00
00
00
00
00
00
00
00
00
00
00
00
00
00
00
00
00
00
00
00
00
00
00
00
00
00
00
00
00
00
00
00
00
00
00
00
00
00
00
00
00
00
00
00
00
00
00
00
00
00
00
00
00
00
00
00
00
00
00
00
00
00
00
00
00
00
00
00
00
00
00
00
00
00
00
00
00
00
00
00
00
00
00
00
00
00
00
00
00
00
00
00
00
00
00
00
00
00
00
00
00
00
00
00
00
00
00
00
00
00
00
00
00
00
00
00
00
00
00
00
00
00
00
00
00
00
00
00
00
00
00
00
00
00
00
00
00
00
00
00
00
00
00
00
00
00
00
00
00
00
00
00
00
00
00
00
00
00
00
00
00
00
00
00
00
00
00
00
00
00
00
00
00
00
00
00
00
00
00
00
00
00
00
00
00
00
00
00
00
00
00
00
00
00
00
00
00
00
00
00
00
00
00
00
00
00
00
00
00
00
00
00
00
00
00
00
00
00
00
00
00
00
00
00
00
00
00
00
00
00
00
00
00
00
00
00
00
00
00
00
00
00
00
00
00
00
00
00
00
00
00
00
00
00
00
00
00
00
00
00
00
00
00
00
00
00
00
00
00
00
00
00
00
00
00
00
00
00
00
00
00
00
00
00
00
00
00
00
00
00
00
00
00
00
00
00
00
00
00
00
00
00
00
00
00
00
00
00
00
00
00
00
00
00
00
00
00
00
00
00
00
00
00
00
00
00
00
00
00
00
00
00
00
00
00
00
00
00
00
00
00
00
00
00
00
00
00
00
00
00
00
00
00
00
00
00
00
00
00
00
00
00
00
00
00
00
00
00
00
00
00
00
00
00
00
00
00
00
00
00
00
00
00
00
00
00
00
00
00
00
00
00
00
00
00
00
00
00
00
00
00
00
00
00
00
00
00
00
00
00
00
00
00
00
00
00
00
00
00
00
00
00
00
00
00
00
00
00
00
00
00
00
00
00
00
00
00
00
00
00
00
00
00
00
00
00
00
00
00
00
00
00
00
00
00
00
00
00
00
00
00
00
00
00
00
00
00
00
00
00
00
00
00
00
00
00
00
00
00
00
00
00
00
00
00
00
00
00
00
00
00
00
00
00
00
00
00
00
00
00
00
00
00
00
00
00
00
00
00
00
00
00
00
00
00
00
00
00
00
00
00
00
00
00
00
00
00
00
00
00
00
00
00
00
00
00
00
00
00
00
00
00
00
00
00
00
00
00
00
00
00
00
00
00
00
00
00
00
00
00
00
00
00
00
00
00
00
00
00
00
00
00
00
00
00
00
00
00
00
00
00
00
00
00
00
00
00
00
00
00
00
00
00
00
00
00
00
00
00
00
00
00
00
00
00
00
00
00
00
00
00
00
00
00
00
00
00
00
00
00
00
00
00
00
00
00
00
00
00
00
00
00
00
00
00
00
00
00
00
00
00
00
00
00
00
00
00
00
00
00
00
00
00
00
00
00
00
00
00
00
00
00
00
00
00
00
00
00
00
00
00
00
00
00
00
00
00
00
00
00
00
00
00
00
00
00
00
00
00
00
00
00
00
00
00
00
00
00
00
00
00
00
00
00
00
00
00
00
00
00
00
00
00
00
00
00
00
00
00
00
00
00
00
00
00
00
00
00
00
00
00
00
00
00
00
00
00
00
00
00
00
00
00
00
00
00
00
10
23
01
fc
2d
0b
0f
25
01
f0
fd
dd
e2
05
0b
ed
e6
f4
dd
f3
ee
01
07
dc
f9
04
1e
15
ea
e9
f2
02
fb
0a
e5
00
f6
0a
10
13
04
0e
1a
07
17
00
0d
36
06
fb
17
20
06
fd
0c
19
0d
19
13
f9
f7
f3
f6
11
03
20
14
f2
00
dc
18
e7
f0
dd
f7
ed
f2
f5
10
fa
15
ed
ea
de
ed
ea
f5
f9
fa
16
12
ea
1a
26
11
09
10
0d
fd
17
ed
f9
ec
e5
e4
01
fd
ed
ff
ed
fc
fe
0f
10
0c
f6
f0
1f
0c
f6
fd
0e
09
15
0e
f4
06
f9
fc
f1
14
f0
19
f5
15
05
01
f9
0b
eb
04
00
0a
12
0c
f0
f5
f5
f3
1d
08
06
fb
ee
fd
f6
08
11
0f
08
f6
44
d5
e0
ee
d5
de
f7
f1
04
fd
06
d0
f9
de
f3
e9
fc
ea
08
01
f4
f7
02
12
00
04
0f
f2
00
1e
0f
18
01
fd
e8
fc
e3
ed
03
00
ee
02
f5
ec
0f
15
32
3f
ef
e7
e2
ff
e0
09
ec
15
00
e3
dd
02
0b
ff
f3
0a
f3
16
fd
f8
0e
10
27
07
14
0b
fd
01
fd
11
06
03
ed
db
02
06
f5
f2
f9
00
11
01
00
fd
24
1a
0e
f4
f0
0f
ff
f8
f8
f0
f1
02
05
ff
08
06
fd
f2
f0
f8
01
04
0b
15
ff
f6
ee
09
f0
d5
e5
cd
d3
f6
13
0b
e9
e3
f3
01
f4
f9
f1
0b
01
01
01
0b
f8
05
ed
ed
0e
ef
fa
20
fe
0f
12
13
00
08
09
09
33
1b
0f
1e
07
1f
e0
10
08
03
13
04
f1
16
f1
d8
fa
fa
f0
f0
12
e4
fc
f4
d6
f7
f3
fd
08
e4
29
0d
cd
0f
0a
06
fa
0c
01
09
f7
f3
10
0a
16
12
ee
f6
01
f3
06
d7
1f
e6
f6
21
f6
e2
22
12
1d
00
f6
ea
00
f9
04
03
f9
f0
17
ff
0d
13
eb
15
eb
ea
18
d2
05
f1
fa
0c
d6
0d
d3
e8
ed
f0
02
fb
e3
fe
07
05
f7
32
04
e9
11
18
d6
ea
f5
fe
fc
1a
f8
ea
f4
08
08
fa
f1
10
00
f6
00
08
fb
0c
f3
05
f1
00
f0
05
00
da
e8
f2
0d
fb
12
f9
09
f7
11
fa
02
eb
0b
22
ef
01
0c
19
0e
13
f7
0c
f2
0b
e1
14
20
01
e6
fb
eb
ee
f8
12
0f
fd
d8
13
07
03
1f
04
1a
18
f4
ee
eb
f2
ff
02
e7
f1
ec
e6
f6
f2
09
17
f2
fd
50
fa
0c
00
f1
f3
04
07
f1
06
fd
cd
f0
f0
eb
f8
de
f0
f9
f3
f4
08
0c
e8
15
fa
15
23
17
f2
fa
eb
f5
02
0a
16
fa
ff
df
f4
e5
e9
f7
f9
fe
ea
fe
10
ee
0b
0f
02
f1
07
ed
e9
13
f9
eb
e4
ec
f0
f1
f5
e4
00
ee
f6
e5
13
d7
eb
12
f4
f5
0c
15
0d
02
0f
fe
df
f5
ed
ea
f6
f8
f4
0f
fb
fa
0c
21
13
f0
0a
02
04
fa
02
0b
09
00
d1
e7
ff
03
ff
fb
d2
00
f3
f1
0b
eb
03
27
07
ee
e8
f4
fd
ee
13
f8
f7
f9
0e
16
fc
03
f9
0e
10
f9
1e
fd
d5
e1
f1
d5
d7
e5
e6
d2
09
de
ce
07
fa
f2
f4
03
05
0c
0e
ee
12
f8
ed
e9
20
f4
17
28
e7
eb
f9
f6
ff
14
f1
e3
fc
f0
fe
05
fc
fe
1f
1e
08
1d
14
27
fa
24
13
11
04
f0
02
f7
07
0c
03
d3
fb
f8
04
e4
f9
fa
12
16
01
12
1e
04
08
21
1b
16
f1
fc
f8
ff
f7
0c
01
09
09
02
0a
07
00
09
1b
06
03
d8
ed
e2
d4
f1
10
02
19
22
13
f5
da
cd
f1
f6
00
dd
f4
f8
fe
ff
fa
10
2e
eb
12
34
08
07
f2
0a
0a
06
0a
f0
f4
fa
08
fe
05
f7
06
fc
10
10
6e
05
0c
fc
0a
04
d7
ed
d2
f9
f3
f5
f5
02
0c
0a
06
08
ff
05
04
0d
fd
24
fb
23
11
23
0f
ee
eb
00
f3
e7
0c
f6
fe
06
fd
f7
f7
ea
00
02
15
14
12
26
fb
0c
23
fe
18
04
02
f9
f6
d3
e4
f9
12
f5
f8
ef
ff
00
07
19
ff
21
06
0b
f3
e4
fa
07
ff
03
07
01
fe
f3
fe
07
07
15
11
02
00
00
fe
04
19
ed
0e
13
ff
09
11
f8
f4
0b
f2
f2
05
09
06
16
0f
f9
fb
15
00
ff
03
02
1a
0b
05
0c
1a
08
15
fa
e6
12
1e
02
07
16
00
01
06
03
00
04
0b
f6
11
eb
14
05
ef
26
1a
01
02
0a
09
0a
fe
f5
ff
12
e5
fd
de
ee
0b
05
f8
55
e7
04
f3
ff
11
02
03
23
00
11
f1
f6
ed
f3
f3
d3
f7
e2
de
fc
02
09
e3
01
f0
fb
fe
f5
f1
08
ec
ed
e8
e7
03
f7
e9
12
ec
fd
06
03
fa
0d
08
be
04
14
e0
c7
07
f7
d9
f5
e8
f1
11
da
de
f8
11
fa
f9
e4
d9
00
f4
06
fd
25
08
02
f4
12
19
f8
14
0e
1a
1f
fc
ed
0a
10
fe
f3
02
e5
17
00
0f
df
f8
f7
ee
f2
ee
05
f4
12
03
0f
20
f8
e5
f0
0f
fc
fb
eb
ed
f7
e3
fd
35
f2
02
ef
e1
05
fd
00
df
0e
05
00
f1
e3
1b
fc
f9
f5
e9
ee
fe
04
06
08
f7
0d
08
f2
fb
18
11
1a
0e
18
03
09
09
16
1d
0e
0e
0a
00
11
04
fc
08
29
16
f0
24
db
e9
df
11
df
f1
f4
e7
f4
f4
10
ea
0a
04
f2
ed
00
e9
54
19
0a
f3
17
01
fa
18
ff
0b
0c
07
ec
0b
0c
ec
ff
ff
ed
06
ed
0a
0b
f4
1c
fa
01
17
22
04
e4
e5
fe
e0
f0
04
df
f1
f4
e9
f8
01
fd
12
12
02
26
16
02
13
03
0d
0c
e3
08
07
f4
02
f4
f9
0d
f7
ed
05
06
09
1c
12
fc
2e
e9
29
1e
0f
ef
09
04
ea
00
d2
fd
09
02
05
02
f5
02
fe
ed
0f
04
eb
22
fa
1e
14
fd
0b
f5
03
ed
17
17
02
d7
fa
07
fe
00
04
fb
04
09
f9
fe
10
11
f1
f3
0c
05
fa
02
03
e4
f0
03
f1
f1
ec
f9
fe
e5
ea
02
06
0a
fc
e6
e8
08
e6
f5
e0
d1
f3
06
fa
cd
1d
00
f1
e5
0f
ed
0f
06
ea
ff
f5
03
e6
e6
06
11
0c
f9
ed
e8
0e
08
01
13
de
d1
f8
0c
e9
fb
fd
f9
f8
f6
f9
03
0e
07
04
35
f6
00
07
1d
fa
ed
ef
13
12
f4
0b
fe
03
1e
2b
09
26
12
06
33
ff
0e
f4
05
11
10
f4
e2
e9
f6
ee
e9
13
07
fc
e5
ec
eb
02
f9
f6
1c
f3
02
fe
f6
17
fe
07
1e
0d
0d
1e
f5
f7
f8
f2
ff
03
f5
13
0b
19
ed
fa
27
07
f8
fb
d9
db
fe
0c
eb
1c
fc
f7
00
dd
05
f2
fc
00
14
e8
0e
ff
08
f7
0d
ed
f1
ea
f4
d2
ed
09
fa
f1
f3
fa
f8
f9
f7
fe
f1
ef
0c
03
ed
de
09
0f
ef
01
2b
09
14
ff
fa
08
0c
ef
ec
d7
f9
de
f6
d5
e9
e9
ea
05
05
05
f1
ca
fd
18
e1
ce
04
f1
02
f6
f7
ef
fa
fe
e9
f3
f4
db
01
f4
f4
01
13
f7
eb
fb
0b
1a
05
de
fd
13
28
00
00
f4
e9
f3
f2
f6
f2
00
fb
ff
e5
ff
dc
d9
f9
e6
eb
ee
0d
04
e5
e0
f4
f9
fe
0a
0d
07
00
03
08
03
f0
11
19
f0
fc
f6
f6
ec
fb
d4
f9
02
ff
22
fb
e4
ff
f7
13
f3
03
f6
fa
ff
db
0d
05
15
d8
dd
f5
04
fb
e6
dd
f7
de
d0
d9
fd
fb
13
fd
13
f1
06
ed
0e
1e
ee
00
db
13
00
f7
d6
ef
d9
01
fc
10
02
e5
fe
f5
f2
ec
05
01
02
f0
c3
01
ef
fe
05
14
02
06
07
08
04
02
12
0d
11
fe
0b
10
f1
f3
0e
fc
ee
d1
ee
07
33
19
fc
e6
08
ea
eb
0e
fd
12
e1
03
03
fd
0b
05
06
fc
fe
2f
e2
f3
d9
08
04
ff
07
1c
f6
19
38
18
0c
f8
0c
02
e8
f1
01
0f
f4
01
f7
18
1d
f2
fb
0a
13
ed
0c
10
00
f5
ff
21
e0
00
f5
eb
f4
f5
fe
04
00
11
3c
06
eb
bf
0b
09
0e
03
0c
07
03
00
27
29
ff
07
ff
ee
05
04
02
05
f3
fb
06
ea
d9
f4
f7
0d
f5
fa
07
05
06
f3
ff
f9
fa
ff
f9
f1
ea
f2
fb
ef
12
0b
03
00
0c
ef
00
fa
fa
e9
ff
20
03
19
f7
f5
ed
f0
f2
fe
fb
ff
0f
05
24
15
db
d6
ca
ef
de
f4
10
12
eb
e5
eb
f3
f1
f7
fe
f6
01
01
fc
0a
ff
e6
d2
07
1f
13
08
13
2f
db
18
07
0c
08
18
38
06
02
1a
19
08
fd
ec
b6
16
ff
06
10
0a
f7
f7
ec
02
06
0a
0f
12
fd
f8
ed
f7
04
01
0c
f8
e1
cf
14
1d
f1
0d
09
ea
ec
ef
f2
01
ec
ef
16
fd
ef
f4
f8
ef
00
09
fa
d7
38
f2
d7
de
01
fe
1a
fe
08
0c
ea
03
0c
ec
e7
0e
06
04
02
09
04
03
de
12
f0
04
01
e8
ed
f3
15
0f
ef
0a
0f
f7
ee
fc
f7
01
f7
fb
fc
e8
f2
16
11
c1
d5
0f
0d
13
08
23
0a
0e
05
fc
07
00
17
04
01
07
f4
11
01
07
f7
27
e9
00
e8
1b
ed
14
23
14
ef
00
20
09
19
04
0a
f2
ff
02
fc
fe
fb
25
13
f3
f4
07
1d
fc
00
ee
e4
0d
f9
01
0e
0d
fd
f7
fd
0b
fb
08
00
fe
08
11
c4
e4
f3
2d
0d
e8
f5
e1
e1
02
fc
fb
f3
e8
00
fc
f6
f9
0a
08
fe
de
1f
f6
0d
f9
08
04
19
0f
17
06
11
11
02
1d
dd
fe
f0
e9
08
fb
f8
f1
f1
e4
1c
fb
fb
22
0e
ee
eb
ed
02
01
f7
12
06
f3
ee
f8
06
00
f7
01
ff
e5
ef
03
f4
18
ff
ed
e4
18
07
f1
02
e7
0f
fb
e7
e9
f0
00
09
f6
f7
e7
fb
13
f1
e3
f6
f2
d8
f9
fd
f7
f7
00
05
f0
ff
08
f9
06
0e
07
fc
f7
fb
fd
0a
1b
0b
f0
fe
f6
f4
f2
14
e4
08
04
0d
2b
08
ed
f3
e2
09
e7
e8
f2
17
04
e6
f8
c3
0d
23
07
e7
06
f8
12
fa
fb
f8
f4
21
0c
02
f9
0d
07
0d
d3
d1
06
10
02
f6
ec
f1
1c
f9
c3
02
f6
1b
f8
fa
00
04
ff
0b
fb
f5
fe
f4
43
16
d5
c4
f3
e7
24
17
06
38
00
fb
f7
f7
f7
07
06
02
16
ff
01
03
fd
3e
f6
03
f5
0f
09
fc
12
ef
ff
11
14
ed
f9
f4
0e
03
ff
f9
04
05
f7
0c
18
f2
fd
06
00
07
1a
01
00
fb
f0
f5
0e
0b
f7
f3
11
0f
02
f2
f1
ff
0b
f5
10
14
e9
f2
f6
1b
2c
da
16
f1
09
ff
05
0d
01
ea
05
00
00
fb
0a
0c
2d
04
01
f8
fc
e3
eb
ea
0c
02
f7
f7
0d
09
fd
f9
0b
fa
0c
f2
f5
f2
43
14
08
f8
0f
fa
f3
f4
fb
fa
20
24
07
16
1e
06
fa
09
f5
fb
f8
04
fd
fe
e2
1b
fb
ea
ff
e8
ea
f0
12
18
0a
0b
09
00
0e
eb
07
ff
fe
00
f9
fd
dc
ff
fc
1a
21
fe
02
0c
ff
dc
