// Layer       : fc2
// Tensor      : weights
// Shape       : (1, 64)
// Dtype       : INT8  (symmetric, zero_point=0)
// Memory order: addr = row*Fin + col
//               row in [0,1), col in [0,64)
// Total words  : 64
// Scale (per-tensor): 2.98662693e-03
// Use in RTL  : $readmemh("fc2_weights.hex", rom_fc2_w);
//
53
00
94
54
b5
a2
00
00
48
9d
c0
ba
a4
fd
a9
69
b8
b4
02
b4
01
4c
65
56
09
c3
83
a8
52
7f
c3
4c
59
a3
5f
69
51
af
6c
ab
4f
92
00
87
6d
c0
fc
98
c3
b7
8d
94
6b
5e
6a
bf
fd
4c
90
90
b0
98
94
57
